node {
  name: "global_step/Initializer/zeros"
  op: "Const"
  attr {
    key: "_class"
    value {
      list {
        s: "loc:@global_step"
      }
    }
  }
  attr {
    key: "_output_shapes"
    value {
      list {
        shape {
        }
      }
    }
  }
  attr {
    key: "dtype"
    value {
      type: DT_INT64
    }
  }
  attr {
    key: "value"
    value {
      tensor {
        dtype: DT_INT64
        tensor_shape {
        }
        int64_val: 0
      }
    }
  }
}
node {
  name: "global_step"
  op: "VariableV2"
  attr {
    key: "_class"
    value {
      list {
        s: "loc:@global_step"
      }
    }
  }
  attr {
    key: "_output_shapes"
    value {
      list {
        shape {
        }
      }
    }
  }
  attr {
    key: "container"
    value {
      s: ""
    }
  }
  attr {
    key: "dtype"
    value {
      type: DT_INT64
    }
  }
  attr {
    key: "shape"
    value {
      shape {
      }
    }
  }
  attr {
    key: "shared_name"
    value {
      s: ""
    }
  }
}
node {
  name: "global_step/Assign"
  op: "Assign"
  input: "global_step"
  input: "global_step/Initializer/zeros"
  attr {
    key: "T"
    value {
      type: DT_INT64
    }
  }
  attr {
    key: "_class"
    value {
      list {
        s: "loc:@global_step"
      }
    }
  }
  attr {
    key: "_output_shapes"
    value {
      list {
        shape {
        }
      }
    }
  }
  attr {
    key: "use_locking"
    value {
      b: true
    }
  }
  attr {
    key: "validate_shape"
    value {
      b: true
    }
  }
}
node {
  name: "global_step/read"
  op: "Identity"
  input: "global_step"
  attr {
    key: "T"
    value {
      type: DT_INT64
    }
  }
  attr {
    key: "_class"
    value {
      list {
        s: "loc:@global_step"
      }
    }
  }
  attr {
    key: "_output_shapes"
    value {
      list {
        shape {
        }
      }
    }
  }
}
node {
  name: "IsVariableInitialized"
  op: "IsVariableInitialized"
  input: "global_step"
  attr {
    key: "_class"
    value {
      list {
        s: "loc:@global_step"
      }
    }
  }
  attr {
    key: "_output_shapes"
    value {
      list {
        shape {
        }
      }
    }
  }
  attr {
    key: "dtype"
    value {
      type: DT_INT64
    }
  }
}
node {
  name: "cond/Switch"
  op: "Switch"
  input: "IsVariableInitialized"
  input: "IsVariableInitialized"
  attr {
    key: "T"
    value {
      type: DT_BOOL
    }
  }
  attr {
    key: "_output_shapes"
    value {
      list {
        shape {
        }
        shape {
        }
      }
    }
  }
}
node {
  name: "cond/switch_t"
  op: "Identity"
  input: "cond/Switch:1"
  attr {
    key: "T"
    value {
      type: DT_BOOL
    }
  }
  attr {
    key: "_output_shapes"
    value {
      list {
        shape {
        }
      }
    }
  }
}
node {
  name: "cond/switch_f"
  op: "Identity"
  input: "cond/Switch"
  attr {
    key: "T"
    value {
      type: DT_BOOL
    }
  }
  attr {
    key: "_output_shapes"
    value {
      list {
        shape {
        }
      }
    }
  }
}
node {
  name: "cond/pred_id"
  op: "Identity"
  input: "IsVariableInitialized"
  attr {
    key: "T"
    value {
      type: DT_BOOL
    }
  }
  attr {
    key: "_output_shapes"
    value {
      list {
        shape {
        }
      }
    }
  }
}
node {
  name: "cond/read/Switch"
  op: "RefSwitch"
  input: "global_step"
  input: "cond/pred_id"
  attr {
    key: "T"
    value {
      type: DT_INT64
    }
  }
  attr {
    key: "_class"
    value {
      list {
        s: "loc:@global_step"
      }
    }
  }
  attr {
    key: "_output_shapes"
    value {
      list {
        shape {
        }
        shape {
        }
      }
    }
  }
}
node {
  name: "cond/read"
  op: "Identity"
  input: "cond/read/Switch:1"
  attr {
    key: "T"
    value {
      type: DT_INT64
    }
  }
  attr {
    key: "_output_shapes"
    value {
      list {
        shape {
        }
      }
    }
  }
}
node {
  name: "cond/Switch_1"
  op: "Switch"
  input: "global_step/Initializer/zeros"
  input: "cond/pred_id"
  attr {
    key: "T"
    value {
      type: DT_INT64
    }
  }
  attr {
    key: "_class"
    value {
      list {
        s: "loc:@global_step"
      }
    }
  }
  attr {
    key: "_output_shapes"
    value {
      list {
        shape {
        }
        shape {
        }
      }
    }
  }
}
node {
  name: "cond/Merge"
  op: "Merge"
  input: "cond/Switch_1"
  input: "cond/read"
  attr {
    key: "N"
    value {
      i: 2
    }
  }
  attr {
    key: "T"
    value {
      type: DT_INT64
    }
  }
  attr {
    key: "_output_shapes"
    value {
      list {
        shape {
        }
        shape {
        }
      }
    }
  }
}
node {
  name: "add/y"
  op: "Const"
  attr {
    key: "_output_shapes"
    value {
      list {
        shape {
        }
      }
    }
  }
  attr {
    key: "dtype"
    value {
      type: DT_INT64
    }
  }
  attr {
    key: "value"
    value {
      tensor {
        dtype: DT_INT64
        tensor_shape {
        }
        int64_val: 0
      }
    }
  }
}
node {
  name: "add"
  op: "Add"
  input: "cond/Merge"
  input: "add/y"
  attr {
    key: "T"
    value {
      type: DT_INT64
    }
  }
  attr {
    key: "_output_shapes"
    value {
      list {
        shape {
        }
      }
    }
  }
}
node {
  name: "tensors/component_0"
  op: "Const"
  device: "/device:CPU:0"
  attr {
    key: "_output_shapes"
    value {
      list {
        shape {
          dim {
            size: 1
          }
          dim {
            size: 29
          }
          dim {
            size: 20
          }
          dim {
            size: 2
          }
        }
      }
    }
  }
  attr {
    key: "dtype"
    value {
      type: DT_DOUBLE
    }
  }
  attr {
    key: "value"
    value {
      tensor {
        dtype: DT_DOUBLE
        tensor_shape {
          dim {
            size: 1
          }
          dim {
            size: 29
          }
          dim {
            size: 20
          }
          dim {
            size: 2
          }
        }
        tensor_content: "2F\342\\\204\314\354?_0\363\245\000\330\377?\343\017&N\211\267\354?a\335K\247\004\373\355?\210\200w5\324T\354?\002\002\304\027~\250\261?I\325G\226\376;\353?[\227\227\220\336\216\355?:\241H\213\025 \353?vY\307\277O#\003@|\010\335\354\333\327\351?s \376\201Ql\366?kL\336\244\255\016\351?\3740\261%\324i\341?\214\\\353\331\273Z\350?\243\240sDTB\365?\367\317n\177\325\261\345? \034j~\202>\004@\014\374M]gT\345?G\310\221\367\272\213\000@W\277\210\261\3176\345?<\020\275F\000\377\345?\235\215\341\315\366\254\344?\336\373Z3\263\332\375?\030\026\243dsO\344?\305\000n\026\037\336\367?H\216\327f\330\365\343?\217\254\272\240q\241\350?J\362\234!D\331\343?\010|\241\245\303\266\336?\375X\240\325\377\036\342?\'\372#\240\242\"\370?Y`B%1\364\337?K6\366\375Q\217\377?b\367\215\216K\353\336?\024\240\217\220\016\210\001@_\241\223\336\273\364\334?\363\243D\376Bm\376?\212O\256\025\027\350\334?\376\220.MF\207\002@7[\222D\326\266\355?\224\320\232\3401x\000@\344\257\227\263\273{\355?\267\335\256]\310\'\376?2F\342\\\204\314\354?_0\363\245\000\330\377?c\217Ym N\354?\345\274\337\350\014{\372?\202U\322\271\237\331\353?\210l^\251u\030\350?\333\354\342u=\315\352?ii\010\t\217(\361?F\342Y}\334\276\350?\033\010\335\351\261\320\354?\007\213\2438\303\335\347?\354\201\303\017U\351\331?\006v\335\257\213\026\347?\021\225\216\334\275\312\001@\374\032\000\367i;\346?\347`\n\350N\233\005@\311\312\364\\\356c\345?\257\\\002>\212R\003@\316\361\025~\230\021\345?\267\306#\370\343\241\361?\235\223\205\\| \344?\367_fk\252b\343?d\264R>*\306\341?|na\010\001\377\364?\327\326\242^\307\362\340?E\"}\266\343@\371?\376?\030\313\307M\340?!\230\026\267\364\364\370?1z\214o\344J\337?Q\260\331\271B\345\371?\261Y\213\302\037\033\337?\363meKL \367?\363\007\004A\204u\335?\247\213*\037u\252\377?+X\370\037,s\335?\352\202\362\227\247-\355?0\226au\260p\356?Q:T\003mT\366?7[\222D\326\266\355?\224\320\232\3401x\000@\367vb\301b[\355?S\333\235\330~\264\357?\305:\355\363\021\200\354?/\306\310\210J\260\003@\210\200w5\324T\354?\002\002\304\027~\250\261?\260\371<\211\375\370\353?\271F>\210\327\031\356?\356\314\257\276|\341\353?\275u(\345\275\202\342?\026\2217\275\316\037\353?l\214\245\365r\270\344?\010\205\356\303u\335\352?\205m\251\272\232\305\000@\246\254\347\216\371\014\352?\234\234\264>\332\322\370?\306G[O\005\333\351?\221\242\016\267\361\306\004@\362\177a\026j\202\351?0\016\347\216^[\365?\303\265Q1*\246\350?t^\351t0\300\374?\034p?.A\226\346?m\231+I\030u\377?\032kN\2754\017\345?Kd/\310\323\352\325?\307tI?d\307\344?\371>|*\247\355\367?^\r\325W\001\277\344?9\026H\"\351n\341?\304%\033\322\377B\344?\322\327}\021oi\352?.*\034a=\320\342?\306\337S\345\240>\376?e\021\272\016\272I\342?\241%C\250C\331\002@0\226au\260p\356?Q:T\003mT\366?\255\013\004\334=\034\355?N\374\325)\265]\345?S\034\353\3319W\354?\226\036\362\262\036Y\370?*\006\206fQ@\354?\010\324\262`\001\363\375?\202U\322\271\237\331\353?\210l^\251u\030\350?\316P\025\276\005\254\353?>>\332\233\203\374\342?\231\306\202>k\220\353?P\354O\315\257\367\363?\303\nA~$\374\351?\364\021\'\222\300\224\361?cMk\303eV\351?\351\321RA\262:\363?\0246\365\250\203E\351?p\013\226\010PR\363?\250\024R\235(\314\350?\371\036a$\376E\007@H\343{\263H\302\350?\030^\031\024m<\370?\214\\\353\331\273Z\350?\243\240sDTB\365?$\013\332\'\351\254\347?\013-&2)\246\367?\336\240\331}K\215\346?:\026\231\305\356\326\005@V4\236\301\376\006\343?\363v8<\307-\000@\250;\327\305\275\370\342?\367l\017|\237\253\362?\227\322\201O\304\274\342?\320\323\261p\372L\353?\327H9>\016b\342?{\260\225\332\r\367\355?\312\033\\#\335D\342?\003\\7\214\356\325\373?*\006\206fQ@\354?\010\324\262`\001\363\375?\013.2\371\372L\353?\301!\221\336\267\220\001@\026\2217\275\316\037\353?l\214\245\365r\270\344?n\311x>.h\347?\2351m\000\372\021\004@\311\222C\txR\347?-\361\354!\275\035\332?\006v\335\257\213\026\347?\021\225\216\334\275\312\001@\206N\305~\232\314\345?u\323=\2429\340\005@?\'?\222\346\305\345?\227g\234\322>\335\364?W\277\210\261\3176\345?<\020\275F\000\377\345?\271\342\364R\273\010\345?\235]o\210\360\352\372?{\306\351\265\343\362\344?\311\360\003\231|3\003@\006S\271\211k\242\343?\224Lw\363\360g\344?\312\366\336Yi\323\342?\3503_z\270t\370?\345`\347\350\351\274\341?UL|D\361\246\364?0R\275H\270\263\341?zj\331.V\275\366?\324op\265\026\225\341?;\n\240oL\260\354?\3449\212-\257\364\337?\223\276\350\003\027\342\357?+\001v\215\344-\335?\303\004(\237{\270\366?\035\272c?7\244\334?nb\245Z\213\351\361?\370\024&\001\216\222\333?\301\354\264$\254\201\002@\255\013\004\334=\034\355?N\374\325)\265]\345?\324\\=6\310\346\354?\026%v\207<\375\374?\2179Uybl\354?\237\206t\312\223\273\353?\013.2\371\372L\353?\301!\221\336\267\220\001@*K\007\002\001\331\352?\213\267l\253\003\005\000@\246\254\347\216\371\014\352?\234\234\264>\332\322\370?\227\277\267\372W\004\352?\260\356\370\020/v\362?m{\213\267\327 \350?o\313\024e\000\r\363?*\3751\203G\362\347?\341\356f\335\003\357\001@\277D\016\000\243\272\347?\241\177N\324\322\201\363?\320\3771o3\306\346?B\022\201\\\233\266\373?\213iD*\354\244\346?\003\216\327\005\317\214\004@\263~\023\277q.\346?\277\307\275\023\000\212\352?\316\361\025~\230\021\345?\267\306#\370\343\241\361?\266\327\010\262D\034\344?\266>\021\346\272\332\351?\344u\333\275%\367\343?\211r\362o\203\346\000@\314\304h\275[\271\343?$\235\201\001C\266\003@I\207\252\265c\363\342?ZQ\005ueP\352?4Q\271\266\201\256\342?\264\316\263c\252\334\355?\233\301\240H\212=\342?Hd\353\013\351\235\361?W[\013\243_h\355?5G\203z\000u\002@\324\\=6\310\346\354?\026%v\207<\375\374?eI\021\365\007u\353?X\034\301\317\217\336\370?\321K\221\313\037\310\352?~\264\315\266.6\360?\204\371\034X\322\204\352?5\347\262\240\332\255\004@$\013\332\'\351\254\347?\013-&2)\246\367?A\376\303\031To\347?La\030\313c\016\002@\311\222C\txR\347?-\361\354!\275\035\332?\263\032z\376\362\310\346?\263sb=\307\315\000@\363\361r\325\250\217\346?\r\357\027\371)\352\002@\2258x\3458(\346? M\010&\227f\374?\np[\334C\326\345?*%d\257\305\233\374?\032kN\2754\017\345?Kd/\310\323\352\325?\236,R\200\277\263\344?\374w\352J\"3\356?\020\301\251\336H\024\344?5\303\202\344\360\327\004@SD0\204#\005\344?\200H\364\202n\237\361?\245RO!\252\000\344?\373\340\007~\275s\362?\255\031\253\321uT\343?g\310\224\351\'\357\346?\201\272i,\232w\342?C\255\204\211\362M\364?$n\016\251\320\021\341?\177e\312\263\230\"\325?W[\013\243_h\355?5G\203z\000u\002@\003`\270\242\'\365\354?o\337VfI`\362?T\377>\347Y\311\354?\'Wlf\014\350\371?\2179Uybl\354?\237\206t\312\223\273\353?k\246DA[\210\353?\373>|\233\'\377\002@Us\213L1U\353?\221\244]\035_]\366?9WD\000\330(\353?*.`\371\326\370\363?\256H\274\026\013\254\352?O\205\337jnk\001@&\365\220&\324I\352?x;\321\302f\r\346?f\273Q\373\303j\351?\204:L\261\306\027\271?H\343{\263H\302\350?\030^\031\024m<\370?\313\340\306U\360\213\350?E\tH\324\010q\000@7\360\213\221\375T\350?\323gx\207r\355\365?\271\307\336\311\354\255\347?\006QH\024\336\305\374?\034p?.A\226\346?m\231+I\030u\377?KT\\\373\204\202\346?L\0339\302I\325\374?\017\245\245^\211G\346?QG\356\3538\213\006@\231\363H\265s\371\345?\356\303\215\223a\233\377?\315\220U\"V\253\345?\270_\"\342\265\247\003@\2421t?\013E\345?\213o\276\251\246\334\002@\313\223/D41\355?\t?%QG\341\005@pd\255\267g\335\354?\272-\232\266\267\275\001@T\377>\347Y\311\354?\'Wlf\014\350\371?\351 \200\'\327\227\354?\035\233$\250Bk\372?\321K\221\313\037\310\352?~\264\315\266.6\360?B3\337\366\224\243\352?\207_\000*N\017\374?\031\002\322J\225\266\351?\204\367O\270wz\371?\"\211\217\206\316e\351?\250\213miH\n\003@\003+f^\025\351\347?y/\243\210\030\243\323?\331`\222\326y\325\347?\372\312\227U\235F\004@\r\322R\335\256D\347?\014\315\336v +\353?\017X\267.%\242\346?\324B(Q\024\177\374?\263~\023\277q.\346?\277\307\275\023\000\212\352?\306\240\334L\237p\345?\262\2337,\215y\364?f~.\325%\253\344?\370\226YS\250\253\372?\271\035y\033\234q\344?:T*\370\363*\005@\274\377RC\371Z\344?\370~\252tt\240\376?\010XE[\270\373\343?\327\253\325A*\316\347?\017\365D0\242\354\343?\307\331\027\332y`\001@\371XM \035\233\343?\271\227\364\302\267\305\340?e\224\035\013\363\270\355?\361\307\376}\347\014\363?\270Y\207h\261T\355?\032\262-\303\214b\361?\313\223/D41\355?\t?%QG\341\005@\255]\201\253r0\355?=\007\277:\315\305\004@ \232\356l\274\355\354?F~\345BZ[\370?\377O\353\020\033B\354?Gj\334\347\032\321\370?\242L\r\001 \301\353?M9\270\314\230\276\364?\232D\310W\r\235\353?\362\030>\370RB\373?\243\331h\214\r,\353?&V}\212\331t\324?9WD\000\330(\353?*.`\371\326\370\363?e\316\345\204\252\255\352?V&\240A\227!\373?\310\217\226\031TR\352?=\335/\241[,\005@\177\262VT\323\247\351?\212\005.O\013A\354?5d\331\216\235\036\351?\250A:Dp\233\352?>.=E\324>\350?\351\n\240\037@}\377?g\327\300>\303\361\347?KA\247\230\263K\376?\002T\227\251$\202\347?5\035-\355\303Y\373?S\261\343\364\014<\347?ut6\262|\326\007@\263\032z\376\362\310\346?\263sb=\307\315\000@\253\362<\342X\355\345?Ma\230\206\363\036\372?\270Y\207h\261T\355?\032\262-\303\214b\361?\351\362\320<s\332\354?\305y\257\374]\367\003@L7t\373 \001\353?\226\350\223\330f\254\000@\220\327\3637\205\213\352?27\005k\336\002\002@x\320\250\326\220\"\352?N\r\203o>y\001@\"\211\217\206\316e\351?\250\213miH\n\003@\3666[\324\352`\350?\004R\352\325\271W\325?M\020\336|\2167\350?WO\177\357\300/\372?4!\256bkc\347?{\335\255Q\345\017\377?\2703\263\244}\220\346?m\303\0177\304T\321?~\326\036\013\276y\346?y\016Y4\324\210\343?\373f\350\253vs\346?\262\204\326\352\364\030\361?m\227\244\315{\021\346?J\374~+\325\344\372?$\365\001\001O\031\345?\217\204\r\007\250B\002@\236\023}\010\264\244\344?\211W\330.n\231\003@\302\nR\374\360Z\344?\275OW\244\242h\357?\366<\211\244\207g\341?\372\024/\362\357h\376?\025\017S\335\231\032\341?\365\325\2419+\216\371?\242uM\332\333@\340?\033\257\251\316jx\352?\213\312R\275\020>\340?\334yK_oy\370?\351\362\320<s\332\354?\305y\257\374]\367\003@U\327/\357\277\211\354?\2011I\222c^\001@\340\270\325f@\203\354?0Q\362`G\353\376?\242%L\333\2432\354?9\277\024$s\276\332?\232D\310W\r\235\353?\362\030>\370RB\373?\3771\267\314^U\353?g\247\353sh\302\370?\353ng\006n\036\351?(_y\265\374\203\376?\235`\330\234\345u\347?\311A\253n\236\235\002@c\022]P1\024\347?iX\221\325\007\317\343?\324B\312\277>K\346?\200\021\267\315\366i\004@wh\324i\244\031\346?\257\204\310\322U\364\353?\010\343\225Y5\363\345?\313au\336Y0\351?\306\240\334L\237p\345?\262\2337,\215y\364?t\023\274\233e\226\344?\356\020\250K\014\203\371?\361\323\004g\236\261\343?:fy;\343\334\340?\213/\221\270ZR\343?\234\344\314\264C\031\003@s\373 \243Z\305\342?\317g\210\243(\220\376?\346D\002`S\177\342?Y\027y\202\210{\360?\333nb\311\377W\341?G\375gc\302q\001@_\t\364R\366\340\340?\237\234\021\204>\177\364?\367 \346Bmm\355?u\335\366P\374\255\376?\301r\014\035HN\355?\335\370\227\261\242P\344?|\227F\272\254\010\355?\374\262\306\244.\376\375?JN`\336%\213\354?\371\206\302\266]&\003@\340\270\325f@\203\354?0Q\362`G\353\376?80\027\376\246\250\353?\355\361\211\007\\\252\000@\236\264\002\220\207\025\353?\365\361\324\366\221\366\325?\310\217\226\031TR\352?=\335/\241[,\005@\341\250\304S\336o\351?qv\275.V\260\376?Y\212;y\245\022\351?\373\351\277\263\330\244\360?\035\364\177\262\342U\350?\376J@\023\257@\373?M\020\336|\2167\350?WO\177\357\300/\372?\007\204t\037\306\026\350?\037\003\335k\312i\326?\263\363$\\\323\256\347?[\332\221\246\357\350\365?\210\257a\270d\013\347?\016N2\232\353\216\367?\013\337\253\347\2777\346?[\365I\350\002)\003@\363\n\274\330\363\221\345?\263~\371\025\243\344\370?\2421t?\013E\345?\213o\276\251\246\334\002@\304%\033\322\377B\344?\322\327}\021oi\352?\010XE[\270\373\343?\327\253\325A*\316\347?\300\225\325[\006\001\356?q\374\315\215\251S\374?\367 \346Bmm\355?u\335\366P\374\255\376?^{\352\317\265\001\355?Ru\270:\321=\357?U\327/\357\277\211\354?\2011I\222c^\001@\177\262VT\323\247\351?\212\005.O\013A\354?\277g\225\373\355}\351?\201\376\034\331\036\020\004@\213\336X\313\226\371\350?\205\354\3746\252\330\351?\323\261\n\326\021t\350?\272\307;!\201q\361?]s\351\227Ze\350?\370}\272L\034\000\001@\3666[\324\352`\350?\004R\352\325\271W\325?J\225Z\356\367\371\347?\310Y\036\256\331l\375?D\r\374\255\276\027\347?\332\360\326\272\377\251\366?\231\363H\265s\371\345?\356\303\215\223a\233\377?\271\035y\033\234q\344?:T*\370\363*\005@-\372oDb[\344?]\013\033:E\000\006@\310\367\265\340\366\332\343?\373k\217\335)/\366?T\314L\244E\320\343?`\240\034\004X\034\354?T\355\337\307\005\236\343?\177\366>im_\377?\314\314*\r-\305\341?\254\3458\352l\203\333?>C\255k\n\266\341?\302\324\032O\n@\001@\300\225\325[\006\001\356?q\374\315\215\251S\374?\267\027\331.\177\235\355?\333J\351\t\311\343\374? \232\356l\274\355\354?F~\345BZ[\370?\242%L\333\2432\354?9\277\024$s\276\332?80\027\376\246\250\353?\355\361\211\007\\\252\000@L7t\373 \001\353?\226\350\223\330f\254\000@5\354\240\325\372Y\352?\363\314[\303j<\376?&\365\220&\324I\352?x;\321\302f\r\346?J\226\354\350\272\343\351?\224\372P\260\252\025\337?\031\002\322J\225\266\351?\204\367O\270wz\371?0\002\215\233\374\262\351?\251\336\353r\357\306\370?\017eK\265x/\350?\004\246\010\220\255\374\373?\342R\226&\257\375\347?\333\3126x\331\227\002@]M\371\001\212\242\347?-\351\342,\314\r\351?\304\225\206\310\237\206\346?\247\251\373\324\354O\003@,\373n\033~:\346?\346\n\337\312\350\225\377?\030\215\177C\332\210\345?q\314\324\316\016\335\001@\302\250@\253f\026\345?`+\247v\t\001\346?\266\327\010\262D\034\344?\266>\021\346\272\332\351?\020\301\251\336H\024\344?5\303\202\344\360\327\004@E\347\0330 \244\355?\306f1\212\347\203\374?\267\027\331.\177\235\355?\333J\351\t\311\343\374?M\025\261B\263&\355?\304\362T\364/\315\005@^{\352\317\265\001\355?Ru\270:\321=\357?\261^\223Z\345\231\354?_=\032WH\356\375?JN`\336%\213\354?\371\206\302\266]&\003@Fu\262\345\227\364\353?\2220\317\313\336w\000@kQW~\212\274\353?\230\006\342\276X\314\340?Us\213L1U\353?\221\244]\035_]\366?n<]\301\352D\353?3KJlSv\002@\243\331h\214\r,\353?&V}\212\331t\324?\256\313\'\333\214\355\351?\314\231vzR/\000@\353ng\006n\036\351?(_y\265\374\203\376?\250\024R\235(\314\350?\371\036a$\376E\007@\303\265Q1*\246\350?t^\351t0\300\374?xo\264\030\242|\350?\367\267\265\242\006l\374?*\3751\203G\362\347?\341\356f\335\003\357\001@\331`\222\326y\325\347?\372\312\227U\235F\004@\372$\263v)p\347?j+rM\200\035\372?-\311\246\006\013\261\346?\322\333\033\036+/\365?\347\035{\217\242\336\355?\264Hi\\\204c\370?E\347\0330 \244\355?\306f1\212\347\203\374?\301tmx\\\214\354?\210\233L\341\325\254\366?S\034\353\3319W\354?\226\036\362\262\036Y\370?\010\205\356\303u\335\352?\205m\251\272\232\305\000@*K\007\002\001\331\352?\213\267l\253\003\005\000@\256H\274\026\013\254\352?O\205\337jnk\001@,\332\237\262Y\004\352?\205\344\341c\266\001\361?0\002\215\233\374\262\351?\251\336\353r\357\306\370?f\245\215\321!\240\351?&\200\250\242\332\313\005@\213\336X\313\226\371\350?\205\354\3746\252\330\351?F\342Y}\334\276\350?\033\010\335\351\261\320\354?g\r>scF\350?\215\341B@!\360\374?\246\220\210\271\320;\350?\365\251\253\264c-\354?\263\363$\\\323\256\347?[\332\221\246\357\350\365?\2258x\3458(\346? M\010&\227f\374?\253\362<\342X\355\345?Ma\230\206\363\036\372?^\3278[z\322\345?\356MV\244\233\235\377?\014\374M]gT\345?G\310\221\367\272\213\000@\271\342\364R\273\010\345?\235]o\210\360\352\372?\347\035{\217\242\336\355?\264Hi\\\204c\370?_\n\275:\237\246\355?s\213\260\034\347\336\366?\252\023\021\005|C\355?\245\237k\031\305X\345?c\217Ym N\354?\345\274\337\350\014{\372?Fu\262\345\227\364\353?\2220\317\313\336w\000@\356\314\257\276|\341\353?\275u(\345\275\202\342?\231\306\202>k\220\353?P\354O\315\257\367\363?\260Iq\245\2134\351?\213\2339\253\336\213\370?kL\336\244\255\016\351?\3740\261%\324i\341?\317\303\265>\343-\350?Rc\2614~F\000@\007\204t\037\306\026\350?\037\003\335k\312i\326?J\225Z\356\367\371\347?\310Y\036\256\331l\375?1V\343\266\033}\347?+k\354ZE\022\002@\320\3771o3\306\346?B\022\201\\\233\266\373?\304\225\206\310\237\206\346?\247\251\373\324\354O\003@\315\220U\"V\253\345?\270_\"\342\265\247\003@\003\313\0379\334\340\344?\352\361\016\360\342q\345?\006S\271\211k\242\343?\224Lw\363\360g\344?/p&b/}\342?\005Q\211\224a\305\002@(Z\2467\006\321\341?\367\n\346k\277\006\360?_\n\275:\237\246\355?s\213\260\034\347\336\366?\344\257\227\263\273{\355?\267\335\256]\310\'\376?\247\221r\016\020\365\354?\266\220\247N\202\212\365?\343\017&N\211\267\354?a\335K\247\004\373\355?\260\371<\211\375\370\353?\271F>\210\327\031\356?\373\3339\n\372&\352?5\"h\220\327(\373?f\245\215\321!\240\351?&\200\250\242\332\313\005@\0246\365\250\203E\351?p\013\226\010PR\363?\377=\315\252J\036\351?\213p\364\274\204O\000@xo\264\030\242|\350?\367\267\265\242\006l\374?\210\257a\270d\013\347?\016N2\232\353\216\367?\337\274dr\032\314\345?\000\212)&\036\376\376?\033\020:\202ej\344?\205a\276Qe\315\352?-\372oDb[\344?]\013\033:E\000\006@I\207\252\265c\363\342?ZQ\005ueP\352?\312\366\336Yi\323\342?\3503_z\270t\370?\356\002\276\352\216t\342?Q@L1ve\003@t\375\216\350-D\342?\001>n\330\345\323\367?`\255\270\266\326\211\341?\251\322\271zC\246\360?\346\220\216\203\237\252\337?\rn\036{\210\200\376?\334\377\263d\377\360\355?\351H\314\001#\232\001@\300\345\210\000\207\220\355?+\010y`\341\242\367?\367vb\301b[\355?S\333\235\330~\264\357?\252\023\021\005|C\355?\245\237k\031\305X\345?M\025\261B\263&\355?\304\362T\364/\315\005@\247\221r\016\020\365\354?\266\220\247N\202\212\365?\301tmx\\\214\354?\210\233L\341\325\254\366?#M3\376\027{\354?v7\323\311\327\221\372?\316P\025\276\005\254\353?>>\332\233\203\374\342?I\325G\226\376;\353?[\227\227\220\336\216\355?\236\264\002\220\207\025\353?\365\361\324\366\221\366\325?\333\354\342u=\315\352?ii\010\t\217(\361?\364l\254\270\235\230\352?\201\031\264\351-\205\342?\330X\n\354\266\307\350?\35641R\355\244\364?\313\340\306U\360\213\350?E\tH\324\010q\000@]s\351\227Ze\350?\370}\272L\034\000\001@\017eK\265x/\350?\004\246\010\220\255\374\373?m{\213\267\327 \350?o\313\024e\000\r\363?S\261\343\364\014<\347?ut6\262|\326\007@?\'?\222\346\305\345?\227g\234\322>\335\364?\334\377\263d\377\360\355?\351H\314\001#\232\001@\036\250\236\331\007\324\355?\376\300i\321\207\016\376?\322\375\215T~\260\355?\222c\242\317\355z\003@|\227F\272\254\010\355?\374\262\306\244.\376\375?\307\317D\320\022v\354?\3644\006\322\272\250\365?\t\006\222jbh\354? \334\352\2164\317\002@kQW~\212\274\353?\230\006\342\276X\314\340?\373\3339\n\372&\352?5\"h\220\327(\373?|\010\335\354\333\327\351?s \376\201Ql\366?\362\177a\026j\202\351?0\016\347\216^[\365?\260Iq\245\2134\351?\213\2339\253\336\213\370?5d\331\216\235\036\351?\250A:Dp\233\352?\323\261\n\326\021t\350?\272\307;!\201q\361?g\r>scF\350?\215\341B@!\360\374?\342R\226&\257\375\347?\333\3126x\331\227\002@\235`\330\234\345u\347?\311A\253n\236\235\002@\336\003r,:t\347?!\340.\242RU\373?Z\267\2045\t\251\346?\203\224n<\266\353\363?\277\027\r\323\216\235\346?:\304\036\350\2465\006@\336\240\331}K\215\346?:\026\231\305\356\326\005@\t\002H^\252\357\355?\362J\252\315=L\372?\036\250\236\331\007\324\355?\376\300i\321\207\016\376?\301r\014\035HN\355?\335\370\227\261\242P\344?\255]\201\253r0\355?=\007\277:\315\305\004@\021_\3021P\214\354?\363\350\001\320\372k\000@1\002!RE\347\353?\373\252Y\333\345\342\374?\3771\267\314^U\353?g\247\353sh\302\370?n<]\301\352D\353?3KJlSv\002@\242\355%\260GA\353?F8z!\204\025\377?Q\257\371\302\300\361\352?\021N\224\310\346\r\372?\364l\254\270\235\230\352?\201\031\264\351-\205\342?5\354\240\325\372Y\352?\363\314[\303j<\376?x\320\250\326\220\"\352?N\r\203o>y\001@\022`\203\351\272\245\351?\320\371\004V_\317\000@\277g\225\373\355}\351?\201\376\034\331\036\020\004@\003+f^\025\351\347?y/\243\210\030\243\323?\345c\307\251\254\344\347?*E\204\005\322\265\350?\271\307\336\311\354\255\347?\006QH\024\336\305\374?^\3278[z\322\345?\356MV\244\233\235\377?\003\313\0379\334\340\344?\352\361\016\360\342q\345?\t\002H^\252\357\355?\362J\252\315=L\372?BRs\247Oz\354?o\253OJ\365\252\006@\307\317D\320\022v\354?\3644\006\322\272\250\365?\035^d!Pb\354?*W\376\024\324\323\370?\005\0178\024\237J\354?\354\310\370[\320;\374?\225\004\r}\3608\354?>\341\007\323\216\370\373?\337So\3777F\353?\375\201J\341d\t\002@Q\004kH\000\324\352?\036\205n\266\004J\335?e\316\345\204\252\255\352?V&\240A\227!\373?Y\212;y\245\022\351?\373\351\277\263\330\244\360?\330X\n\354\266\307\350?\35641R\355\244\364?\372$\263v)p\347?j+rM\200\035\372?\017X\267.%\242\346?\324B(Q\024\177\374?~\326\036\013\276y\346?y\016Y4\324\210\343?\324B\312\277>K\346?\200\021\267\315\366i\004@\017\245\245^\211G\346?QG\356\3538\213\006@\030\215\177C\332\210\345?q\314\324\316\016\335\001@\307tI?d\307\344?\371>|*\247\355\367?\030\026\243dsO\344?\305\000n\026\037\336\367?\245RO!\252\000\344?\373\340\007~\275s\362?\005\0178\024\237J\354?\354\310\370[\320;\374?\205\315_\030et\353?\3529&\217\357\024\376?O\247O\251\241A\353?\257\007\360\222\301\177\365?Q\257\371\302\300\361\352?\021N\224\310\346\r\372?>.=E\324>\350?\351\n\240\037@}\377?4!\256bkc\347?{\335\255Q\345\017\377?@\3238:\030\314\346?\001\221r\270\261c\373?\277\027\r\323\216\235\346?:\304\036\350\2465\006@\010\343\225Y5\363\345?\313au\336Y0\351?5\345\303H\266\262\345?<\260\256(\004F\333?\363\n\274\330\363\221\345?\263~\371\025\243\344\370?H\374W\017\351\250\344?\366\357\034WF^\327?\347\352\\\265\340}\343?*\261\217iZW\365?\345\2353qU\351\341?]HaN\352\333\342?\370O\304\246_Z\341?Z\354\363\235\211J\002@\006\010&\224s+\341?\034$\322\224\373*\364?\321!~\330\235d\340?pWEd\365\002\374?Dy\n\023%8\340?\036]\334=,\357\363?y.Ldq\313\333?\035[\304G-\242\001@\263\036\372\203\301L\331?\217\275\236\t)\326\000@\\\323U\362%L\355?X\177\326\323\274\265\362?\367\215\361I\341\212\353?&}(\007\023\351\004@\205\315_\030et\353?\3529&\217\357\024\376?\337So\3777F\353?\375\201J\341d\t\002@g\327\300>\303\361\347?KA\247\230\263K\376?\345c\307\251\254\344\347?*E\204\005\322\265\350? O\374\222\315|\347?j\370\350\310\300%\001@\r\322R\335\256D\347?\014\315\336v +\353?a\352[w\030o\345?n\334\276\202w\337\001@\236\023}\010\264\244\344?\211W\330.n\231\003@SD0\204#\005\344?\200H\364\202n\237\361?,{\331\334u\332\343?\227\373\007\373\302\244\370?\220\031\031\nI\264\343?L\224\247h\355S\363?_\t\364R\366\340\340?\237\234\021\204>\177\364?a\022\315\037v\320\340?\017\267\332(z>\366?\n?}\222\356[\340?\211M\373\257\333\037\373?\356\215b>\314Y\340?\225\034>&\236J\373?~:%L\202K\340?>\221DJ\243M\365?\377\335\332\014\033@\335?\321\357\031\315t=\360?\241\265\277\202\377\007\333?pb\314\245RJ\350?~\353\376\333j\364\355?\345\r\226~\221\002\003@e\224\035\013\363\270\355?\361\307\376}\347\014\363?\\\323U\362%L\355?X\177\326\323\274\265\362?\351 \200\'\327\227\354?\035\233$\250Bk\372?BRs\247Oz\354?o\253OJ\365\252\006@1\002!RE\347\353?\373\252Y\333\345\342\374?kQpk\321\223\353?\210\032\357[\271\277\363?O\247O\251\241A\353?\257\007\360\222\301\177\365?\220\327\3637\205\213\352?27\005k\336\002\002@f\273Q\373\303j\351?\204:L\261\306\027\271?l\037x\267{\256\347?\263J-4\364[\367?]M\371\001\212\242\347?-\351\342,\314\r\351?\336\003r,:t\347?!\340.\242RU\373?A\376\303\031To\347?La\030\313c\016\002@c\022]P1\024\347?iX\221\325\007\317\343?w\250\256~~\257\346?\345Z\035\252\374\033\365?\013\337\253\347\2777\346?[\365I\350\002)\003@P\211kk\325\231\344?\356J9\210c\345\000@T\355\337\307\005\236\343?\177\366>im_\377?4Q\271\266\201\256\342?\264\316\263c\252\334\355?~\353\376\333j\364\355?\345\r\226~\221\002\003@pd\255\267g\335\354?\272-\232\266\267\275\001@\035_\017*M\230\354?\307n\271B.H\370?\242L\r\001 \301\353?M9\270\314\230\276\364?\367\215\361I\341\212\353?&}(\007\023\351\004@k\246DA[\210\353?\373>|\233\'\377\002@eI\021\365\007u\353?X\034\301\317\217\336\370?Q\004kH\000\324\352?\036\205n\266\004J\335?\022`\203\351\272\245\351?\320\371\004V_\317\000@\367\206\034Ji\330\350?\230o\206\036\027E\366?@\3238:\030\314\346?\001\221r\270\261c\373?-\311\246\006\013\261\346?\322\333\033\036+/\365?Z\267\2045\t\251\346?\203\224n<\266\353\363?\213iD*\354\244\346?\003\216\327\005\317\214\004@\2703\263\244}\220\346?m\303\0177\304T\321?,\373n\033~:\346?\346\n\337\312\350\225\377?\r\250/\257Eg\345?y\325\233\243\347<\373?\237+\342\313\222\357\343?6\241\232\250\276\325\367?\213/\221\270ZR\343?\234\344\314\264C\031\003@\324\005\221\306\226L\343?\004\202@+^\037\342?)Rib\\\324\355?v\246\024\345\305w\316?\003`\270\242\'\365\354?o\337VfI`\362?\261^\223Z\345\231\354?_=\032WH\356\375?\035_\017*M\230\354?\307n\271B.H\370?\021_\3021P\214\354?\363\350\001\320\372k\000@#M3\376\027{\354?v7\323\311\327\221\372?\t\006\222jbh\354? \334\352\2164\317\002@\377O\353\020\033B\354?Gj\334\347\032\321\370?\225\004\r}\3608\354?>\341\007\323\216\370\373?kQpk\321\223\353?\210\032\357[\271\277\363?B3\337\366\224\243\352?\207_\000*N\017\374?\204\371\034X\322\204\352?5\347\262\240\332\255\004@,\332\237\262Y\004\352?\205\344\341c\266\001\361?\227\277\267\372W\004\352?\260\356\370\020/v\362?J\226\354\350\272\343\351?\224\372P\260\252\025\337?\306G[O\005\333\351?\221\242\016\267\361\306\004@\341\250\304S\336o\351?qv\275.V\260\376?cMk\303eV\351?\351\321RA\262:\363?1V\343\266\033}\347?+k\354ZE\022\002@ O\374\222\315|\347?j\370\350\310\300%\001@)Rib\\\324\355?v\246\024\345\305w\316?\322\375\215T~\260\355?\222c\242\317\355z\003@\300\345\210\000\207\220\355?+\010y`\341\242\367?\305:\355\363\021\200\354?/\306\310\210J\260\003@\035^d!Pb\354?*W\376\024\324\323\370?\242\355%\260GA\353?F8z!\204\025\377?:\241H\213\025 \353?vY\307\277O#\003@\303\nA~$\374\351?\364\021\'\222\300\224\361?\256\313\'\333\214\355\351?\314\231vzR/\000@\377=\315\252J\036\351?\213p\364\274\204O\000@\367\206\034Ji\330\350?\230o\206\036\027E\366?\035\364\177\262\342U\350?\376J@\023\257@\373?7\360\213\221\375T\350?\323gx\207r\355\365?\246\220\210\271\320;\350?\365\251\253\264c-\354?\317\303\265>\343-\350?Rc\2614~F\000@\007\213\2438\303\335\347?\354\201\303\017U\351\331?\277D\016\000\243\272\347?\241\177N\324\322\201\363?l\037x\267{\256\347?\263J-4\364[\367?\002T\227\251$\202\347?5\035-\355\303Y\373?n\311x>.h\347?\2351m\000\372\021\004@"
      }
    }
  }
}
node {
  name: "tensors/component_1"
  op: "Const"
  device: "/device:CPU:0"
  attr {
    key: "_output_shapes"
    value {
      list {
        shape {
          dim {
            size: 1
          }
          dim {
            size: 223
          }
          dim {
            size: 20
          }
          dim {
            size: 1
          }
        }
      }
    }
  }
  attr {
    key: "dtype"
    value {
      type: DT_INT64
    }
  }
  attr {
    key: "value"
    value {
      tensor {
        dtype: DT_INT64
        tensor_shape {
          dim {
            size: 1
          }
          dim {
            size: 223
          }
          dim {
            size: 20
          }
          dim {
            size: 1
          }
        }
        tensor_content: "\001\000\000\000\000\000\000\000\253\000\000\000\000\000\000\000w\000\000\000\000\000\000\000y\000\000\000\000\000\000\000\003\000\000\000\000\000\000\000\207\000\000\000\000\000\000\000{\000\000\000\000\000\000\000\002\000\000\000\000\000\000\000\257\000\000\000\000\000\000\000\211\000\000\000\000\000\000\000\254\000\000\000\000\000\000\000\252\000\000\000\000\000\000\000\210\000\000\000\000\000\000\000z\000\000\000\000\000\000\000v\000\000\000\000\000\000\000u\000\000\000\000\000\000\000\203\000\000\000\000\000\000\000\206\000\000\000\000\000\000\000\004\000\000\000\000\000\000\000\256\000\000\000\000\000\000\000\002\000\000\000\000\000\000\000\000\000\000\000\000\000\000\000\250\000\000\000\000\000\000\000\252\000\000\000\000\000\000\000{\000\000\000\000\000\000\000\305\000\000\000\000\000\000\000\003\000\000\000\000\000\000\000}\000\000\000\000\000\000\000\251\000\000\000\000\000\000\000\253\000\000\000\000\000\000\000\304\000\000\000\000\000\000\000\254\000\000\000\000\000\000\000|\000\000\000\000\000\000\000z\000\000\000\000\000\000\000\211\000\000\000\000\000\000\000\247\000\000\000\000\000\000\000y\000\000\000\000\000\000\000\207\000\000\000\000\000\000\000\257\000\000\000\000\000\000\000~\000\000\000\000\000\000\000\003\000\000\000\000\000\000\000\001\000\000\000\000\000\000\000\251\000\000\000\000\000\000\000\250\000\000\000\000\000\000\000\000\000\000\000\000\000\000\000\211\000\000\000\000\000\000\000{\000\000\000\000\000\000\000\252\000\000\000\000\000\000\000\004\000\000\000\000\000\000\000\210\000\000\000\000\000\000\000\207\000\000\000\000\000\000\000\305\000\000\000\000\000\000\000\247\000\000\000\000\000\000\000\253\000\000\000\000\000\000\000\244\000\000\000\000\000\000\000|\000\000\000\000\000\000\000}\000\000\000\000\000\000\000\212\000\000\000\000\000\000\000\005\000\000\000\000\000\000\000z\000\000\000\000\000\000\000\002\000\000\000\000\000\000\000\004\000\000\000\000\000\000\000\210\000\000\000\000\000\000\000\000\000\000\000\000\000\000\000\211\000\000\000\000\000\000\000\001\000\000\000\000\000\000\000\207\000\000\000\000\000\000\000\005\000\000\000\000\000\000\000\251\000\000\000\000\000\000\000{\000\000\000\000\000\000\000\250\000\000\000\000\000\000\000\006\000\000\000\000\000\000\000\212\000\000\000\000\000\000\000\252\000\000\000\000\000\000\000w\000\000\000\000\000\000\000u\000\000\000\000\000\000\000\206\000\000\000\000\000\000\000\253\000\000\000\000\000\000\000v\000\000\000\000\000\000\000y\000\000\000\000\000\000\000\210\000\000\000\000\000\000\000\003\000\000\000\000\000\000\000\005\000\000\000\000\000\000\000\006\000\000\000\000\000\000\000\211\000\000\000\000\000\000\000\207\000\000\000\000\000\000\000\212\000\000\000\000\000\000\000\002\000\000\000\000\000\000\000\007\000\000\000\000\000\000\000\000\000\000\000\000\000\000\000t\000\000\000\000\000\000\000\206\000\000\000\000\000\000\000v\000\000\000\000\000\000\000u\000\000\000\000\000\000\000w\000\000\000\000\000\000\000\n\000\000\000\000\000\000\000\205\000\000\000\000\000\000\000\251\000\000\000\000\000\000\000\001\000\000\000\000\000\000\000\013\000\000\000\000\000\000\000\006\000\000\000\000\000\000\000\004\000\000\000\000\000\000\000\207\000\000\000\000\000\000\000\007\000\000\000\000\000\000\000\210\000\000\000\000\000\000\000\205\000\000\000\000\000\000\000\206\000\000\000\000\000\000\000\003\000\000\000\000\000\000\000\010\000\000\000\000\000\000\0004\000\000\000\000\000\000\000\n\000\000\000\000\000\000\000\203\000\000\000\000\000\000\000w\000\000\000\000\000\000\000\000\000\000\000\000\000\000\000\002\000\000\000\000\000\000\000\204\000\000\000\000\000\000\000\211\000\000\000\000\000\000\000v\000\000\000\000\000\000\000\013\000\000\000\000\000\000\000x\000\000\000\000\000\000\000\007\000\000\000\000\000\000\000\005\000\000\000\000\000\000\000\210\000\000\000\000\000\000\000\206\000\000\000\000\000\000\000\n\000\000\000\000\000\000\000\004\000\000\000\000\000\000\000\207\000\000\000\000\000\000\000\010\000\000\000\000\000\000\000\013\000\000\000\000\000\000\000\205\000\000\000\000\000\000\0004\000\000\000\000\000\000\000v\000\000\000\000\000\000\000w\000\000\000\000\000\000\000\t\000\000\000\000\000\000\000\003\000\000\000\000\000\000\000t\000\000\000\000\000\000\000\211\000\000\000\000\000\000\000x\000\000\000\000\000\000\000\016\000\000\000\000\000\000\000\000\000\000\000\000\000\000\000\010\000\000\000\000\000\000\000\006\000\000\000\000\000\000\000\n\000\000\000\000\000\000\000\005\000\000\000\000\000\000\000\t\000\000\000\000\000\000\0004\000\000\000\000\000\000\000\206\000\000\000\000\000\000\000\013\000\000\000\000\000\000\000\205\000\000\000\000\000\000\000\210\000\000\000\000\000\000\000\004\000\000\000\000\000\000\000\207\000\000\000\000\000\000\000\014\000\000\000\000\000\000\0002\000\000\000\000\000\000\0005\000\000\000\000\000\000\0003\000\000\000\000\000\000\000v\000\000\000\000\000\000\000w\000\000\000\000\000\000\000b\000\000\000\000\000\000\000\016\000\000\000\000\000\000\000\007\000\000\000\000\000\000\000\t\000\000\000\000\000\000\000\n\000\000\000\000\000\000\0004\000\000\000\000\000\000\000\006\000\000\000\000\000\000\000\013\000\000\000\000\000\000\000\206\000\000\000\000\000\000\000b\000\000\000\000\000\000\0002\000\000\000\000\000\000\000\005\000\000\000\000\000\000\000\205\000\000\000\000\000\000\000:\000\000\000\000\000\000\0003\000\000\000\000\000\000\000\014\000\000\000\000\000\000\000<\000\000\000\000\000\000\0005\000\000\000\000\000\000\000;\000\000\000\000\000\000\000a\000\000\000\000\000\000\000\207\000\000\000\000\000\000\000\016\000\000\000\000\000\000\000\010\000\000\000\000\000\000\000\n\000\000\000\000\000\000\000b\000\000\000\000\000\000\0002\000\000\000\000\000\000\000\007\000\000\000\000\000\000\000\014\000\000\000\000\000\000\000\013\000\000\000\000\000\000\0004\000\000\000\000\000\000\000<\000\000\000\000\000\000\000a\000\000\000\000\000\000\0003\000\000\000\000\000\000\000c\000\000\000\000\000\000\000\006\000\000\000\000\000\000\000;\000\000\000\000\000\000\000\206\000\000\000\000\000\000\000:\000\000\000\000\000\000\000`\000\000\000\000\000\000\000\016\000\000\000\000\000\000\000=\000\000\000\000\000\000\000d\000\000\000\000\000\000\000\013\000\000\000\000\000\000\000\007\000\000\000\000\000\000\000\t\000\000\000\000\000\000\000\010\000\000\000\000\000\000\000\006\000\000\000\000\000\000\000\014\000\000\000\000\000\000\000\206\000\000\000\000\000\000\000\r\000\000\000\000\000\000\0004\000\000\000\000\000\000\000\210\000\000\000\000\000\000\000b\000\000\000\000\000\000\000\005\000\000\000\000\000\000\000\016\000\000\000\000\000\000\000a\000\000\000\000\000\000\0002\000\000\000\000\000\000\000t\000\000\000\000\000\000\000v\000\000\000\000\000\000\000\004\000\000\000\000\000\000\000d\000\000\000\000\000\000\000c\000\000\000\000\000\000\000\014\000\000\000\000\000\000\000\n\000\000\000\000\000\000\000\r\000\000\000\000\000\000\000\016\000\000\000\000\000\000\000\t\000\000\000\000\000\000\000\006\000\000\000\000\000\000\000v\000\000\000\000\000\000\000\206\000\000\000\000\000\000\000\007\000\000\000\000\000\000\000\010\000\000\000\000\000\000\000t\000\000\000\000\000\000\000d\000\000\000\000\000\000\000\210\000\000\000\000\000\000\000\263\000\000\000\000\000\000\0002\000\000\000\000\000\000\000w\000\000\000\000\000\000\0004\000\000\000\000\000\000\000\265\000\000\000\000\000\000\000\017\000\000\000\000\000\000\000c\000\000\000\000\000\000\000\013\000\000\000\000\000\000\000d\000\000\000\000\000\000\000\r\000\000\000\000\000\000\000c\000\000\000\000\000\000\000\n\000\000\000\000\000\000\000\t\000\000\000\000\000\000\000\016\000\000\000\000\000\000\000a\000\000\000\000\000\000\000e\000\000\000\000\000\000\0002\000\000\000\000\000\000\000b\000\000\000\000\000\000\000\034\000\000\000\000\000\000\000`\000\000\000\000\000\000\000f\000\000\000\000\000\000\000\010\000\000\000\000\000\000\000\017\000\000\000\000\000\000\0001\000\000\000\000\000\000\000\033\000\000\000\000\000\000\000_\000\000\000\000\000\000\000\007\000\000\000\000\000\000\000\014\000\000\000\000\000\000\000\013\000\000\000\000\000\000\000\016\000\000\000\000\000\000\000f\000\000\000\000\000\000\000d\000\000\000\000\000\000\000\033\000\000\000\000\000\000\000\263\000\000\000\000\000\000\000e\000\000\000\000\000\000\000\034\000\000\000\000\000\000\000\265\000\000\000\000\000\000\000\032\000\000\000\000\000\000\000\017\000\000\000\000\000\000\000v\000\000\000\000\000\000\000\272\000\000\000\000\000\000\000\n\000\000\000\000\000\000\000c\000\000\000\000\000\000\000t\000\000\000\000\000\000\000\270\000\000\000\000\000\000\000g\000\000\000\000\000\000\000\262\000\000\000\000\000\000\000\017\000\000\000\000\000\000\000\032\000\000\000\000\000\000\000\r\000\000\000\000\000\000\000\013\000\000\000\000\000\000\000v\000\000\000\000\000\000\000\263\000\000\000\000\000\000\000\033\000\000\000\000\000\000\000w\000\000\000\000\000\000\000\031\000\000\000\000\000\000\000\014\000\000\000\000\000\000\000\020\000\000\000\000\000\000\000\206\000\000\000\000\000\000\000\262\000\000\000\000\000\000\000x\000\000\000\000\000\000\0002\000\000\000\000\000\000\0003\000\000\000\000\000\000\000\034\000\000\000\000\000\000\0001\000\000\000\000\000\000\000\261\000\000\000\000\000\000\000d\000\000\000\000\000\000\000\032\000\000\000\000\000\000\000\020\000\000\000\000\000\000\000\016\000\000\000\000\000\000\000\031\000\000\000\000\000\000\000\033\000\000\000\000\000\000\0001\000\000\000\000\000\000\000\021\000\000\000\000\000\000\000/\000\000\000\000\000\000\000\034\000\000\000\000\000\000\000\"\000\000\000\000\000\000\0000\000\000\000\000\000\000\000\030\000\000\000\000\000\000\0003\000\000\000\000\000\000\0002\000\000\000\000\000\000\000\r\000\000\000\000\000\000\000\262\000\000\000\000\000\000\000x\000\000\000\000\000\000\000\261\000\000\000\000\000\000\000\263\000\000\000\000\000\000\000$\000\000\000\000\000\000\000\017\000\000\000\000\000\000\000\021\000\000\000\000\000\000\0000\000\000\000\000\000\000\000\031\000\000\000\000\000\000\000\026\000\000\000\000\000\000\000/\000\000\000\000\000\000\000\022\000\000\000\000\000\000\000\030\000\000\000\000\000\000\000\032\000\000\000\000\000\000\000x\000\000\000\000\000\000\0003\000\000\000\000\000\000\000\016\000\000\000\000\000\000\0001\000\000\000\000\000\000\0006\000\000\000\000\000\000\000\027\000\000\000\000\000\000\000.\000\000\000\000\000\000\0002\000\000\000\000\000\000\000w\000\000\000\000\000\000\000?\000\000\000\000\000\000\000-\000\000\000\000\000\000\000\020\000\000\000\000\000\000\000\030\000\000\000\000\000\000\000\031\000\000\000\000\000\000\000\027\000\000\000\000\000\000\000\022\000\000\000\000\000\000\000-\000\000\000\000\000\000\000/\000\000\000\000\000\000\000\017\000\000\000\000\000\000\000\026\000\000\000\000\000\000\000\032\000\000\000\000\000\000\000(\000\000\000\000\000\000\000.\000\000\000\000\000\000\000\023\000\000\000\000\000\000\0000\000\000\000\000\000\000\000$\000\000\000\000\000\000\000\261\000\000\000\000\000\000\000*\000\000\000\000\000\000\000W\000\000\000\000\000\000\000\"\000\000\000\000\000\000\000\025\000\000\000\000\000\000\000\023\000\000\000\000\000\000\000.\000\000\000\000\000\000\000\024\000\000\000\000\000\000\000\021\000\000\000\000\000\000\0000\000\000\000\000\000\000\000\025\000\000\000\000\000\000\000\020\000\000\000\000\000\000\000\027\000\000\000\000\000\000\000\026\000\000\000\000\000\000\000-\000\000\000\000\000\000\000/\000\000\000\000\000\000\000,\000\000\000\000\000\000\000\030\000\000\000\000\000\000\000?\000\000\000\000\000\000\0006\000\000\000\000\000\000\000*\000\000\000\000\000\000\000\017\000\000\000\000\000\000\000A\000\000\000\000\000\000\000\031\000\000\000\000\000\000\0003\000\000\000\000\000\000\000\024\000\000\000\000\000\000\000\022\000\000\000\000\000\000\000\025\000\000\000\000\000\000\000,\000\000\000\000\000\000\000\027\000\000\000\000\000\000\000-\000\000\000\000\000\000\000*\000\000\000\000\000\000\000.\000\000\000\000\000\000\000\021\000\000\000\000\000\000\000\026\000\000\000\000\000\000\000+\000\000\000\000\000\000\0000\000\000\000\000\000\000\000\030\000\000\000\000\000\000\000\020\000\000\000\000\000\000\000/\000\000\000\000\000\000\000(\000\000\000\000\000\000\000B\000\000\000\000\000\000\000A\000\000\000\000\000\000\000?\000\000\000\000\000\000\000)\000\000\000\000\000\000\000\023\000\000\000\000\000\000\000\025\000\000\000\000\000\000\000\022\000\000\000\000\000\000\000\026\000\000\000\000\000\000\000.\000\000\000\000\000\000\000\027\000\000\000\000\000\000\0000\000\000\000\000\000\000\000,\000\000\000\000\000\000\000\021\000\000\000\000\000\000\0006\000\000\000\000\000\000\0007\000\000\000\000\000\000\000-\000\000\000\000\000\000\000\020\000\000\000\000\000\000\000*\000\000\000\000\000\000\000?\000\000\000\000\000\000\000\030\000\000\000\000\000\000\000/\000\000\000\000\000\000\000+\000\000\000\000\000\000\000A\000\000\000\000\000\000\0003\000\000\000\000\000\000\000\024\000\000\000\000\000\000\000\023\000\000\000\000\000\000\000\022\000\000\000\000\000\000\000\026\000\000\000\000\000\000\000\027\000\000\000\000\000\000\000\021\000\000\000\000\000\000\000\030\000\000\000\000\000\000\000*\000\000\000\000\000\000\000\020\000\000\000\000\000\000\000,\000\000\000\000\000\000\0006\000\000\000\000\000\000\000.\000\000\000\000\000\000\000-\000\000\000\000\000\000\000\256\000\000\000\000\000\000\0000\000\000\000\000\000\000\000\202\000\000\000\000\000\000\0007\000\000\000\000\000\000\000(\000\000\000\000\000\000\000+\000\000\000\000\000\000\000x\000\000\000\000\000\000\000\027\000\000\000\000\000\000\000\030\000\000\000\000\000\000\000\020\000\000\000\000\000\000\000\256\000\000\000\000\000\000\000\025\000\000\000\000\000\000\000x\000\000\000\000\000\000\000\021\000\000\000\000\000\000\000\022\000\000\000\000\000\000\0006\000\000\000\000\000\000\000y\000\000\000\000\000\000\000\031\000\000\000\000\000\000\000\023\000\000\000\000\000\000\000\024\000\000\000\000\000\000\000\202\000\000\000\000\000\000\000w\000\000\000\000\000\000\000\257\000\000\000\000\000\000\000\203\000\000\000\000\000\000\0000\000\000\000\000\000\000\000\017\000\000\000\000\000\000\000\260\000\000\000\000\000\000\000\030\000\000\000\000\000\000\000\021\000\000\000\000\000\000\000\026\000\000\000\000\000\000\000\025\000\000\000\000\000\000\000(\000\000\000\000\000\000\000\023\000\000\000\000\000\000\000\022\000\000\000\000\000\000\000*\000\000\000\000\000\000\000\256\000\000\000\000\000\000\000\031\000\000\000\000\000\000\000\020\000\000\000\000\000\000\000-\000\000\000\000\000\000\000\260\000\000\000\000\000\000\000\024\000\000\000\000\000\000\000,\000\000\000\000\000\000\000\261\000\000\000\000\000\000\000\'\000\000\000\000\000\000\000.\000\000\000\000\000\000\000%\000\000\000\000\000\000\000\257\000\000\000\000\000\000\000\031\000\000\000\000\000\000\000\027\000\000\000\000\000\000\000\021\000\000\000\000\000\000\000\256\000\000\000\000\000\000\000\260\000\000\000\000\000\000\000(\000\000\000\000\000\000\000\026\000\000\000\000\000\000\000\261\000\000\000\000\000\000\000\020\000\000\000\000\000\000\000\032\000\000\000\000\000\000\000\257\000\000\000\000\000\000\000\262\000\000\000\000\000\000\000%\000\000\000\000\000\000\000$\000\000\000\000\000\000\000\017\000\000\000\000\000\000\000\022\000\000\000\000\000\000\000x\000\000\000\000\000\000\000\'\000\000\000\000\000\000\000y\000\000\000\000\000\000\000\276\000\000\000\000\000\000\000\032\000\000\000\000\000\000\000\030\000\000\000\000\000\000\000\261\000\000\000\000\000\000\000\262\000\000\000\000\000\000\000\021\000\000\000\000\000\000\000\260\000\000\000\000\000\000\000\017\000\000\000\000\000\000\000$\000\000\000\000\000\000\000\020\000\000\000\000\000\000\000\256\000\000\000\000\000\000\000\016\000\000\000\000\000\000\000\257\000\000\000\000\000\000\000\033\000\000\000\000\000\000\000%\000\000\000\000\000\000\000(\000\000\000\000\000\000\000\027\000\000\000\000\000\000\000\026\000\000\000\000\000\000\000\263\000\000\000\000\000\000\000\276\000\000\000\000\000\000\000w\000\000\000\000\000\000\000\031\000\000\000\000\000\000\000\033\000\000\000\000\000\000\000\017\000\000\000\000\000\000\000\262\000\000\000\000\000\000\000\261\000\000\000\000\000\000\000\016\000\000\000\000\000\000\000\263\000\000\000\000\000\000\000$\000\000\000\000\000\000\000#\000\000\000\000\000\000\000\"\000\000\000\000\000\000\000\020\000\000\000\000\000\000\000\030\000\000\000\000\000\000\000\021\000\000\000\000\000\000\000\034\000\000\000\000\000\000\000\r\000\000\000\000\000\000\000v\000\000\000\000\000\000\000\260\000\000\000\000\000\000\000\275\000\000\000\000\000\000\000%\000\000\000\000\000\000\000\276\000\000\000\000\000\000\000\032\000\000\000\000\000\000\000#\000\000\000\000\000\000\000\034\000\000\000\000\000\000\000\"\000\000\000\000\000\000\000\017\000\000\000\000\000\000\000\263\000\000\000\000\000\000\000\035\000\000\000\000\000\000\000\r\000\000\000\000\000\000\000\016\000\000\000\000\000\000\000\262\000\000\000\000\000\000\000f\000\000\000\000\000\000\000$\000\000\000\000\000\000\000\031\000\000\000\000\000\000\000\272\000\000\000\000\000\000\000\261\000\000\000\000\000\000\000e\000\000\000\000\000\000\000\275\000\000\000\000\000\000\000\274\000\000\000\000\000\000\000d\000\000\000\000\000\000\000W\000\000\000\000\000\000\000\033\000\000\000\000\000\000\000\035\000\000\000\000\000\000\000e\000\000\000\000\000\000\000d\000\000\000\000\000\000\000\036\000\000\000\000\000\000\000\"\000\000\000\000\000\000\000f\000\000\000\000\000\000\000\037\000\000\000\000\000\000\000\r\000\000\000\000\000\000\000\017\000\000\000\000\000\000\000\032\000\000\000\000\000\000\000c\000\000\000\000\000\000\000#\000\000\000\000\000\000\0001\000\000\000\000\000\000\000\014\000\000\000\000\000\000\000]\000\000\000\000\000\000\000\016\000\000\000\000\000\000\000_\000\000\000\000\000\000\000!\000\000\000\000\000\000\000Y\000\000\000\000\000\000\000\036\000\000\000\000\000\000\000\034\000\000\000\000\000\000\000e\000\000\000\000\000\000\000f\000\000\000\000\000\000\000\033\000\000\000\000\000\000\000#\000\000\000\000\000\000\000\"\000\000\000\000\000\000\000h\000\000\000\000\000\000\000!\000\000\000\000\000\000\000g\000\000\000\000\000\000\000\037\000\000\000\000\000\000\000\272\000\000\000\000\000\000\000\327\000\000\000\000\000\000\000d\000\000\000\000\000\000\000\333\000\000\000\000\000\000\000V\000\000\000\000\000\000\000\r\000\000\000\000\000\000\000 \000\000\000\000\000\000\000\032\000\000\000\000\000\000\000W\000\000\000\000\000\000\000\037\000\000\000\000\000\000\000\035\000\000\000\000\000\000\000\034\000\000\000\000\000\000\000!\000\000\000\000\000\000\000 \000\000\000\000\000\000\000e\000\000\000\000\000\000\000\"\000\000\000\000\000\000\000\333\000\000\000\000\000\000\000]\000\000\000\000\000\000\000Y\000\000\000\000\000\000\000\\\000\000\000\000\000\000\000_\000\000\000\000\000\000\000d\000\000\000\000\000\000\000f\000\000\000\000\000\000\000\033\000\000\000\000\000\000\000X\000\000\000\000\000\000\000#\000\000\000\000\000\000\000h\000\000\000\000\000\000\000g\000\000\000\000\000\000\000W\000\000\000\000\000\000\000\036\000\000\000\000\000\000\000]\000\000\000\000\000\000\000 \000\000\000\000\000\000\000\\\000\000\000\000\000\000\000_\000\000\000\000\000\000\000\034\000\000\000\000\000\000\000Y\000\000\000\000\000\000\000^\000\000\000\000\000\000\000!\000\000\000\000\000\000\000[\000\000\000\000\000\000\000\035\000\000\000\000\000\000\000e\000\000\000\000\000\000\000d\000\000\000\000\000\000\000c\000\000\000\000\000\000\000\"\000\000\000\000\000\000\000X\000\000\000\000\000\000\000@\000\000\000\000\000\000\0001\000\000\000\000\000\000\000>\000\000\000\000\000\000\000`\000\000\000\000\000\000\000\037\000\000\000\000\000\000\000Y\000\000\000\000\000\000\000\\\000\000\000\000\000\000\000X\000\000\000\000\000\000\000!\000\000\000\000\000\000\000\036\000\000\000\000\000\000\000[\000\000\000\000\000\000\000]\000\000\000\000\000\000\000\"\000\000\000\000\000\000\000Z\000\000\000\000\000\000\000W\000\000\000\000\000\000\000C\000\000\000\000\000\000\000\034\000\000\000\000\000\000\000\333\000\000\000\000\000\000\000@\000\000\000\000\000\000\000\035\000\000\000\000\000\000\000\336\000\000\000\000\000\000\000D\000\000\000\000\000\000\000B\000\000\000\000\000\000\000A\000\000\000\000\000\000\000X\000\000\000\000\000\000\000 \000\000\000\000\000\000\000\333\000\000\000\000\000\000\000\036\000\000\000\000\000\000\000\"\000\000\000\000\000\000\000V\000\000\000\000\000\000\000W\000\000\000\000\000\000\000Y\000\000\000\000\000\000\000\035\000\000\000\000\000\000\000\037\000\000\000\000\000\000\000\336\000\000\000\000\000\000\000#\000\000\000\000\000\000\000\332\000\000\000\000\000\000\000D\000\000\000\000\000\000\000F\000\000\000\000\000\000\000\034\000\000\000\000\000\000\000\327\000\000\000\000\000\000\000\334\000\000\000\000\000\000\000C\000\000\000\000\000\000\000E\000\000\000\000\000\000\000#\000\000\000\000\000\000\000W\000\000\000\000\000\000\000\033\000\000\000\000\000\000\000\034\000\000\000\000\000\000\000!\000\000\000\000\000\000\000$\000\000\000\000\000\000\000V\000\000\000\000\000\000\000\032\000\000\000\000\000\000\000\035\000\000\000\000\000\000\000Y\000\000\000\000\000\000\000\017\000\000\000\000\000\000\000U\000\000\000\000\000\000\000\036\000\000\000\000\000\000\000/\000\000\000\000\000\000\000X\000\000\000\000\000\000\000\031\000\000\000\000\000\000\000 \000\000\000\000\000\000\000\021\000\000\000\000\000\000\000\037\000\000\000\000\000\000\000\261\000\000\000\000\000\000\000$\000\000\000\000\000\000\000\"\000\000\000\000\000\000\000\033\000\000\000\000\000\000\000V\000\000\000\000\000\000\000\032\000\000\000\000\000\000\000U\000\000\000\000\000\000\000\035\000\000\000\000\000\000\000W\000\000\000\000\000\000\000\261\000\000\000\000\000\000\000T\000\000\000\000\000\000\000\275\000\000\000\000\000\000\000%\000\000\000\000\000\000\000\034\000\000\000\000\000\000\000\262\000\000\000\000\000\000\000\272\000\000\000\000\000\000\000\327\000\000\000\000\000\000\000\031\000\000\000\000\000\000\000!\000\000\000\000\000\000\000\320\000\000\000\000\000\000\000\274\000\000\000\000\000\000\000%\000\000\000\000\000\000\000#\000\000\000\000\000\000\000\261\000\000\000\000\000\000\000U\000\000\000\000\000\000\000\032\000\000\000\000\000\000\000\031\000\000\000\000\000\000\000T\000\000\000\000\000\000\000\275\000\000\000\000\000\000\000\"\000\000\000\000\000\000\000\262\000\000\000\000\000\000\000&\000\000\000\000\000\000\000(\000\000\000\000\000\000\000\033\000\000\000\000\000\000\000V\000\000\000\000\000\000\000W\000\000\000\000\000\000\000S\000\000\000\000\000\000\000\260\000\000\000\000\000\000\000\030\000\000\000\000\000\000\000\021\000\000\000\000\000\000\000\276\000\000\000\000\000\000\000$\000\000\000\000\000\000\000&\000\000\000\000\000\000\000(\000\000\000\000\000\000\000\261\000\000\000\000\000\000\000U\000\000\000\000\000\000\000S\000\000\000\000\000\000\000T\000\000\000\000\000\000\000\'\000\000\000\000\000\000\000\260\000\000\000\000\000\000\000\275\000\000\000\000\000\000\000\031\000\000\000\000\000\000\000#\000\000\000\000\000\000\000\277\000\000\000\000\000\000\000\262\000\000\000\000\000\000\000\276\000\000\000\000\000\000\000\030\000\000\000\000\000\000\000G\000\000\000\000\000\000\000\316\000\000\000\000\000\000\000\032\000\000\000\000\000\000\000K\000\000\000\000\000\000\000%\000\000\000\000\000\000\000S\000\000\000\000\000\000\000U\000\000\000\000\000\000\000\'\000\000\000\000\000\000\000(\000\000\000\000\000\000\000K\000\000\000\000\000\000\000G\000\000\000\000\000\000\000T\000\000\000\000\000\000\000$\000\000\000\000\000\000\000)\000\000\000\000\000\000\000P\000\000\000\000\000\000\000H\000\000\000\000\000\000\000R\000\000\000\000\000\000\000\261\000\000\000\000\000\000\000M\000\000\000\000\000\000\000\277\000\000\000\000\000\000\000E\000\000\000\000\000\000\000F\000\000\000\000\000\000\000\260\000\000\000\000\000\000\000V\000\000\000\000\000\000\000(\000\000\000\000\000\000\000&\000\000\000\000\000\000\000%\000\000\000\000\000\000\000S\000\000\000\000\000\000\000P\000\000\000\000\000\000\000\260\000\000\000\000\000\000\000\277\000\000\000\000\000\000\000K\000\000\000\000\000\000\000M\000\000\000\000\000\000\000)\000\000\000\000\000\000\000\261\000\000\000\000\000\000\000\030\000\000\000\000\000\000\000$\000\000\000\000\000\000\000U\000\000\000\000\000\000\000\027\000\000\000\000\000\000\000*\000\000\000\000\000\000\000\276\000\000\000\000\000\000\000\256\000\000\000\000\000\000\000\300\000\000\000\000\000\000\000G\000\000\000\000\000\000\000%\000\000\000\000\000\000\000\'\000\000\000\000\000\000\000&\000\000\000\000\000\000\000\030\000\000\000\000\000\000\000)\000\000\000\000\000\000\000\027\000\000\000\000\000\000\000$\000\000\000\000\000\000\000*\000\000\000\000\000\000\000\260\000\000\000\000\000\000\000\261\000\000\000\000\000\000\000U\000\000\000\000\000\000\000\021\000\000\000\000\000\000\000\031\000\000\000\000\000\000\000S\000\000\000\000\000\000\000-\000\000\000\000\000\000\000\256\000\000\000\000\000\000\000G\000\000\000\000\000\000\000E\000\000\000\000\000\000\000\277\000\000\000\000\000\000\000\032\000\000\000\000\000\000\000*\000\000\000\000\000\000\000(\000\000\000\000\000\000\000E\000\000\000\000\000\000\000+\000\000\000\000\000\000\000&\000\000\000\000\000\000\000G\000\000\000\000\000\000\000U\000\000\000\000\000\000\000-\000\000\000\000\000\000\000\'\000\000\000\000\000\000\000%\000\000\000\000\000\000\000,\000\000\000\000\000\000\000F\000\000\000\000\000\000\000W\000\000\000\000\000\000\000K\000\000\000\000\000\000\000\027\000\000\000\000\000\000\000$\000\000\000\000\000\000\000B\000\000\000\000\000\000\000\021\000\000\000\000\000\000\000D\000\000\000\000\000\000\000V\000\000\000\000\000\000\000+\000\000\000\000\000\000\000)\000\000\000\000\000\000\000,\000\000\000\000\000\000\000-\000\000\000\000\000\000\000(\000\000\000\000\000\000\000\027\000\000\000\000\000\000\000\023\000\000\000\000\000\000\000\021\000\000\000\000\000\000\000\025\000\000\000\000\000\000\000E\000\000\000\000\000\000\000\022\000\000\000\000\000\000\000\030\000\000\000\000\000\000\000\'\000\000\000\000\000\000\000&\000\000\000\000\000\000\000B\000\000\000\000\000\000\000\024\000\000\000\000\000\000\000.\000\000\000\000\000\000\000U\000\000\000\000\000\000\000%\000\000\000\000\000\000\000W\000\000\000\000\000\000\000,\000\000\000\000\000\000\000*\000\000\000\000\000\000\000-\000\000\000\000\000\000\000)\000\000\000\000\000\000\000\023\000\000\000\000\000\000\000E\000\000\000\000\000\000\000B\000\000\000\000\000\000\000(\000\000\000\000\000\000\000\027\000\000\000\000\000\000\000.\000\000\000\000\000\000\000\022\000\000\000\000\000\000\000C\000\000\000\000\000\000\000A\000\000\000\000\000\000\000\021\000\000\000\000\000\000\000W\000\000\000\000\000\000\000D\000\000\000\000\000\000\000\025\000\000\000\000\000\000\000\024\000\000\000\000\000\000\000U\000\000\000\000\000\000\000/\000\000\000\000\000\000\000+\000\000\000\000\000\000\000-\000\000\000\000\000\000\000*\000\000\000\000\000\000\000\023\000\000\000\000\000\000\000B\000\000\000\000\000\000\000.\000\000\000\000\000\000\000\022\000\000\000\000\000\000\000A\000\000\000\000\000\000\000)\000\000\000\000\000\000\000\021\000\000\000\000\000\000\000\024\000\000\000\000\000\000\000\027\000\000\000\000\000\000\000/\000\000\000\000\000\000\000E\000\000\000\000\000\000\000C\000\000\000\000\000\000\000\025\000\000\000\000\000\000\000(\000\000\000\000\000\000\000W\000\000\000\000\000\000\000Z\000\000\000\000\000\000\000@\000\000\000\000\000\000\000,\000\000\000\000\000\000\000B\000\000\000\000\000\000\000.\000\000\000\000\000\000\000+\000\000\000\000\000\000\000*\000\000\000\000\000\000\000\021\000\000\000\000\000\000\000/\000\000\000\000\000\000\000\022\000\000\000\000\000\000\000\023\000\000\000\000\000\000\000A\000\000\000\000\000\000\000W\000\000\000\000\000\000\000\027\000\000\000\000\000\000\000E\000\000\000\000\000\000\000)\000\000\000\000\000\000\000(\000\000\000\000\000\000\000C\000\000\000\000\000\000\000\030\000\000\000\000\000\000\000\020\000\000\000\000\000\000\000@\000\000\000\000\000\000\0000\000\000\000\000\000\000\000/\000\000\000\000\000\000\000\022\000\000\000\000\000\000\000-\000\000\000\000\000\000\000A\000\000\000\000\000\000\0000\000\000\000\000\000\000\000?\000\000\000\000\000\000\000@\000\000\000\000\000\000\000,\000\000\000\000\000\000\000\023\000\000\000\000\000\000\000B\000\000\000\000\000\000\000\021\000\000\000\000\000\000\000\020\000\000\000\000\000\000\000\024\000\000\000\000\000\000\0001\000\000\000\000\000\000\000\027\000\000\000\000\000\000\000\017\000\000\000\000\000\000\000Y\000\000\000\000\000\000\000Z\000\000\000\000\000\000\000\025\000\000\000\000\000\000\000>\000\000\000\000\000\000\000.\000\000\000\000\000\000\000@\000\000\000\000\000\000\0000\000\000\000\000\000\000\0001\000\000\000\000\000\000\000A\000\000\000\000\000\000\000\020\000\000\000\000\000\000\000\021\000\000\000\000\000\000\000\017\000\000\000\000\000\000\000-\000\000\000\000\000\000\000B\000\000\000\000\000\000\000Y\000\000\000\000\000\000\000?\000\000\000\000\000\000\000\022\000\000\000\000\000\000\000\"\000\000\000\000\000\000\000W\000\000\000\000\000\000\000>\000\000\000\000\000\000\000\032\000\000\000\000\000\000\000\031\000\000\000\000\000\000\000\034\000\000\000\000\000\000\000,\000\000\000\000\000\000\000\020\000\000\000\000\000\000\000?\000\000\000\000\000\000\000\022\000\000\000\000\000\000\000/\000\000\000\000\000\000\000.\000\000\000\000\000\000\0001\000\000\000\000\000\000\0003\000\000\000\000\000\000\000\021\000\000\000\000\000\000\000\017\000\000\000\000\000\000\000=\000\000\000\000\000\000\0006\000\000\000\000\000\000\000@\000\000\000\000\000\000\0002\000\000\000\000\000\000\000>\000\000\000\000\000\000\000\026\000\000\000\000\000\000\000\024\000\000\000\000\000\000\000\023\000\000\000\000\000\000\000A\000\000\000\000\000\000\000-\000\000\000\000\000\000\000x\000\000\000\000\000\000\0002\000\000\000\000\000\000\000>\000\000\000\000\000\000\000/\000\000\000\000\000\000\000\017\000\000\000\000\000\000\000c\000\000\000\000\000\000\0000\000\000\000\000\000\000\0003\000\000\000\000\000\000\000@\000\000\000\000\000\000\000=\000\000\000\000\000\000\000?\000\000\000\000\000\000\000\020\000\000\000\000\000\000\000]\000\000\000\000\000\000\000\034\000\000\000\000\000\000\000\016\000\000\000\000\000\000\000<\000\000\000\000\000\000\000^\000\000\000\000\000\000\000d\000\000\000\000\000\000\000\014\000\000\000\000\000\000\000Y\000\000\000\000\000\000\000.\000\000\000\000\000\000\0003\000\000\000\000\000\000\0001\000\000\000\000\000\000\000=\000\000\000\000\000\000\000<\000\000\000\000\000\000\000\t\000\000\000\000\000\000\000c\000\000\000\000\000\000\000>\000\000\000\000\000\000\000;\000\000\000\000\000\000\0004\000\000\000\000\000\000\000b\000\000\000\000\000\000\000\014\000\000\000\000\000\000\000\017\000\000\000\000\000\000\000\016\000\000\000\000\000\000\0000\000\000\000\000\000\000\000\010\000\000\000\000\000\000\000\020\000\000\000\000\000\000\000:\000\000\000\000\000\000\000\013\000\000\000\000\000\000\000?\000\000\000\000\000\000\000`\000\000\000\000\000\000\0002\000\000\000\000\000\000\0004\000\000\000\000\000\000\000=\000\000\000\000\000\000\0006\000\000\000\000\000\000\0001\000\000\000\000\000\000\0000\000\000\000\000\000\000\0005\000\000\000\000\000\000\000\020\000\000\000\000\000\000\000x\000\000\000\000\000\000\000\t\000\000\000\000\000\000\000:\000\000\000\000\000\000\000\017\000\000\000\000\000\000\000;\000\000\000\000\000\000\000<\000\000\000\000\000\000\000\016\000\000\000\000\000\000\000\206\000\000\000\000\000\000\000?\000\000\000\000\000\000\0008\000\000\000\000\000\000\0009\000\000\000\000\000\000\000>\000\000\000\000\000\000\0005\000\000\000\000\000\000\000\205\000\000\000\000\000\000\0003\000\000\000\000\000\000\000\010\000\000\000\000\000\000\000\206\000\000\000\000\000\000\000\007\000\000\000\000\000\000\000\t\000\000\000\000\000\000\000:\000\000\000\000\000\000\0006\000\000\000\000\000\000\0002\000\000\000\000\000\000\000x\000\000\000\000\000\000\000\204\000\000\000\000\000\000\000\006\000\000\000\000\000\000\0008\000\000\000\000\000\000\000\005\000\000\000\000\000\000\000\n\000\000\000\000\000\000\000;\000\000\000\000\000\000\000=\000\000\000\000\000\000\000\013\000\000\000\000\000\000\000\207\000\000\000\000\000\000\0008\000\000\000\000\000\000\0006\000\000\000\000\000\000\0004\000\000\000\000\000\000\000\204\000\000\000\000\000\000\0007\000\000\000\000\000\000\000\205\000\000\000\000\000\000\000:\000\000\000\000\000\000\0003\000\000\000\000\000\000\0009\000\000\000\000\000\000\000x\000\000\000\000\000\000\000\203\000\000\000\000\000\000\000\206\000\000\000\000\000\000\000=\000\000\000\000\000\000\000;\000\000\000\000\000\000\0002\000\000\000\000\000\000\000\010\000\000\000\000\000\000\000\007\000\000\000\000\000\000\0000\000\000\000\000\000\000\000\t\000\000\000\000\000\000\000\020\000\000\000\000\000\000\0007\000\000\000\000\000\000\0005\000\000\000\000\000\000\000\204\000\000\000\000\000\000\0003\000\000\000\000\000\000\000x\000\000\000\000\000\000\0008\000\000\000\000\000\000\0004\000\000\000\000\000\000\000\026\000\000\000\000\000\000\000\205\000\000\000\000\000\000\000\020\000\000\000\000\000\000\000\203\000\000\000\000\000\000\0000\000\000\000\000\000\000\000\206\000\000\000\000\000\000\000\022\000\000\000\000\000\000\0009\000\000\000\000\000\000\000:\000\000\000\000\000\000\000=\000\000\000\000\000\000\0002\000\000\000\000\000\000\000w\000\000\000\000\000\000\000\024\000\000\000\000\000\000\0006\000\000\000\000\000\000\0008\000\000\000\000\000\000\0005\000\000\000\000\000\000\000\204\000\000\000\000\000\000\0009\000\000\000\000\000\000\000\203\000\000\000\000\000\000\000\205\000\000\000\000\000\000\0003\000\000\000\000\000\000\0004\000\000\000\000\000\000\000\026\000\000\000\000\000\000\000:\000\000\000\000\000\000\000x\000\000\000\000\000\000\000\024\000\000\000\000\000\000\0000\000\000\000\000\000\000\000\022\000\000\000\000\000\000\000\025\000\000\000\000\000\000\000\202\000\000\000\000\000\000\000=\000\000\000\000\000\000\000\020\000\000\000\000\000\000\000\206\000\000\000\000\000\000\0009\000\000\000\000\000\000\0005\000\000\000\000\000\000\0007\000\000\000\000\000\000\000:\000\000\000\000\000\000\0006\000\000\000\000\000\000\000\204\000\000\000\000\000\000\000;\000\000\000\000\000\000\0004\000\000\000\000\000\000\000=\000\000\000\000\000\000\0003\000\000\000\000\000\000\000\205\000\000\000\000\000\000\0000\000\000\000\000\000\000\0002\000\000\000\000\000\000\000<\000\000\000\000\000\000\000?\000\000\000\000\000\000\000x\000\000\000\000\000\000\000\203\000\000\000\000\000\000\000\010\000\000\000\000\000\000\000\206\000\000\000\000\000\000\000\020\000\000\000\000\000\000\0008\000\000\000\000\000\000\000:\000\000\000\000\000\000\000;\000\000\000\000\000\000\000=\000\000\000\000\000\000\0005\000\000\000\000\000\000\0007\000\000\000\000\000\000\0003\000\000\000\000\000\000\000?\000\000\000\000\000\000\0006\000\000\000\000\000\000\000<\000\000\000\000\000\000\0004\000\000\000\000\000\000\0002\000\000\000\000\000\000\0000\000\000\000\000\000\000\000>\000\000\000\000\000\000\000\204\000\000\000\000\000\000\0001\000\000\000\000\000\000\000\205\000\000\000\000\000\000\000\t\000\000\000\000\000\000\000\010\000\000\000\000\000\000\000\020\000\000\000\000\000\000\000;\000\000\000\000\000\000\0009\000\000\000\000\000\000\0008\000\000\000\000\000\000\0005\000\000\000\000\000\000\000=\000\000\000\000\000\000\0004\000\000\000\000\000\000\000<\000\000\000\000\000\000\0003\000\000\000\000\000\000\0002\000\000\000\000\000\000\000\010\000\000\000\000\000\000\000\t\000\000\000\000\000\000\0006\000\000\000\000\000\000\0007\000\000\000\000\000\000\000\205\000\000\000\000\000\000\000\204\000\000\000\000\000\000\000b\000\000\000\000\000\000\000\007\000\000\000\000\000\000\000?\000\000\000\000\000\000\0000\000\000\000\000\000\000\000\206\000\000\000\000\000\000\000<\000\000\000\000\000\000\000:\000\000\000\000\000\000\000=\000\000\000\000\000\000\0009\000\000\000\000\000\000\0002\000\000\000\000\000\000\0003\000\000\000\000\000\000\0008\000\000\000\000\000\000\000b\000\000\000\000\000\000\000\t\000\000\000\000\000\000\0004\000\000\000\000\000\000\000>\000\000\000\000\000\000\0005\000\000\000\000\000\000\000\010\000\000\000\000\000\000\000?\000\000\000\000\000\000\0001\000\000\000\000\000\000\000c\000\000\000\000\000\000\000`\000\000\000\000\000\000\0006\000\000\000\000\000\000\0000\000\000\000\000\000\000\000a\000\000\000\000\000\000\000;\000\000\000\000\000\000\000=\000\000\000\000\000\000\0002\000\000\000\000\000\000\000b\000\000\000\000\000\000\000\t\000\000\000\000\000\000\000:\000\000\000\000\000\000\000>\000\000\000\000\000\000\000c\000\000\000\000\000\000\0003\000\000\000\000\000\000\000`\000\000\000\000\000\000\0001\000\000\000\000\000\000\000a\000\000\000\000\000\000\0009\000\000\000\000\000\000\000\010\000\000\000\000\000\000\0004\000\000\000\000\000\000\000^\000\000\000\000\000\000\000?\000\000\000\000\000\000\000\014\000\000\000\000\000\000\0008\000\000\000\000\000\000\0005\000\000\000\000\000\000\000;\000\000\000\000\000\000\000<\000\000\000\000\000\000\0002\000\000\000\000\000\000\0003\000\000\000\000\000\000\000>\000\000\000\000\000\000\0009\000\000\000\000\000\000\000?\000\000\000\000\000\000\000:\000\000\000\000\000\000\0001\000\000\000\000\000\000\0000\000\000\000\000\000\000\0008\000\000\000\000\000\000\0004\000\000\000\000\000\000\0005\000\000\000\000\000\000\000\t\000\000\000\000\000\000\0006\000\000\000\000\000\000\000c\000\000\000\000\000\000\000b\000\000\000\000\000\000\000\020\000\000\000\000\000\000\000@\000\000\000\000\000\000\000/\000\000\000\000\000\000\0001\000\000\000\000\000\000\000=\000\000\000\000\000\000\000?\000\000\000\000\000\000\000^\000\000\000\000\000\000\000]\000\000\000\000\000\000\000@\000\000\000\000\000\000\0002\000\000\000\000\000\000\000c\000\000\000\000\000\000\000<\000\000\000\000\000\000\000/\000\000\000\000\000\000\0000\000\000\000\000\000\000\000\\\000\000\000\000\000\000\0003\000\000\000\000\000\000\000`\000\000\000\000\000\000\000;\000\000\000\000\000\000\000_\000\000\000\000\000\000\000[\000\000\000\000\000\000\000Y\000\000\000\000\000\000\000\017\000\000\000\000\000\000\000.\000\000\000\000\000\000\0000\000\000\000\000\000\000\000>\000\000\000\000\000\000\000@\000\000\000\000\000\000\000.\000\000\000\000\000\000\000=\000\000\000\000\000\000\000/\000\000\000\000\000\000\0001\000\000\000\000\000\000\0003\000\000\000\000\000\000\000A\000\000\000\000\000\000\000\022\000\000\000\000\000\000\0002\000\000\000\000\000\000\0009\000\000\000\000\000\000\000\020\000\000\000\000\000\000\000;\000\000\000\000\000\000\000<\000\000\000\000\000\000\0006\000\000\000\000\000\000\000\017\000\000\000\000\000\000\000\021\000\000\000\000\000\000\000[\000\000\000\000\000\000\000]\000\000\000\000\000\000\000A\000\000\000\000\000\000\000/\000\000\000\000\000\000\000Y\000\000\000\000\000\000\000[\000\000\000\000\000\000\000?\000\000\000\000\000\000\000>\000\000\000\000\000\000\000.\000\000\000\000\000\000\0001\000\000\000\000\000\000\000Z\000\000\000\000\000\000\000B\000\000\000\000\000\000\000\\\000\000\000\000\000\000\000]\000\000\000\000\000\000\0000\000\000\000\000\000\000\000C\000\000\000\000\000\000\000 \000\000\000\000\000\000\000-\000\000\000\000\000\000\000^\000\000\000\000\000\000\000\037\000\000\000\000\000\000\000W\000\000\000\000\000\000\000X\000\000\000\000\000\000\000B\000\000\000\000\000\000\000@\000\000\000\000\000\000\000Z\000\000\000\000\000\000\000.\000\000\000\000\000\000\000/\000\000\000\000\000\000\000C\000\000\000\000\000\000\000Y\000\000\000\000\000\000\000-\000\000\000\000\000\000\000[\000\000\000\000\000\000\000,\000\000\000\000\000\000\000?\000\000\000\000\000\000\000X\000\000\000\000\000\000\000W\000\000\000\000\000\000\0000\000\000\000\000\000\000\000\022\000\000\000\000\000\000\000\\\000\000\000\000\000\000\000D\000\000\000\000\000\000\0001\000\000\000\000\000\000\000 \000\000\000\000\000\000\000>\000\000\000\000\000\000\000A\000\000\000\000\000\000\000C\000\000\000\000\000\000\000-\000\000\000\000\000\000\000Z\000\000\000\000\000\000\000Y\000\000\000\000\000\000\000W\000\000\000\000\000\000\000/\000\000\000\000\000\000\000,\000\000\000\000\000\000\000E\000\000\000\000\000\000\000D\000\000\000\000\000\000\000@\000\000\000\000\000\000\000X\000\000\000\000\000\000\000.\000\000\000\000\000\000\000+\000\000\000\000\000\000\000[\000\000\000\000\000\000\000\"\000\000\000\000\000\000\000\021\000\000\000\000\000\000\000 \000\000\000\000\000\000\000*\000\000\000\000\000\000\000\022\000\000\000\000\000\000\000B\000\000\000\000\000\000\000D\000\000\000\000\000\000\000Z\000\000\000\000\000\000\000X\000\000\000\000\000\000\000A\000\000\000\000\000\000\000Y\000\000\000\000\000\000\000E\000\000\000\000\000\000\000W\000\000\000\000\000\000\000[\000\000\000\000\000\000\000-\000\000\000\000\000\000\000 \000\000\000\000\000\000\000@\000\000\000\000\000\000\000!\000\000\000\000\000\000\000F\000\000\000\000\000\000\000,\000\000\000\000\000\000\000\336\000\000\000\000\000\000\000/\000\000\000\000\000\000\000V\000\000\000\000\000\000\000\"\000\000\000\000\000\000\000+\000\000\000\000\000\000\000C\000\000\000\000\000\000\000E\000\000\000\000\000\000\000X\000\000\000\000\000\000\000F\000\000\000\000\000\000\000W\000\000\000\000\000\000\000B\000\000\000\000\000\000\000\336\000\000\000\000\000\000\000V\000\000\000\000\000\000\000!\000\000\000\000\000\000\000Y\000\000\000\000\000\000\000Z\000\000\000\000\000\000\000 \000\000\000\000\000\000\000\332\000\000\000\000\000\000\000U\000\000\000\000\000\000\000A\000\000\000\000\000\000\000G\000\000\000\000\000\000\000-\000\000\000\000\000\000\000\333\000\000\000\000\000\000\000\335\000\000\000\000\000\000\000\"\000\000\000\000\000\000\000F\000\000\000\000\000\000\000D\000\000\000\000\000\000\000W\000\000\000\000\000\000\000)\000\000\000\000\000\000\000U\000\000\000\000\000\000\000G\000\000\000\000\000\000\000V\000\000\000\000\000\000\000C\000\000\000\000\000\000\000B\000\000\000\000\000\000\000-\000\000\000\000\000\000\000X\000\000\000\000\000\000\000+\000\000\000\000\000\000\000&\000\000\000\000\000\000\000*\000\000\000\000\000\000\000\"\000\000\000\000\000\000\000$\000\000\000\000\000\000\000(\000\000\000\000\000\000\000!\000\000\000\000\000\000\000,\000\000\000\000\000\000\000%\000\000\000\000\000\000\000E\000\000\000\000\000\000\000V\000\000\000\000\000\000\000G\000\000\000\000\000\000\000U\000\000\000\000\000\000\000D\000\000\000\000\000\000\000\332\000\000\000\000\000\000\000W\000\000\000\000\000\000\000H\000\000\000\000\000\000\000\336\000\000\000\000\000\000\000\326\000\000\000\000\000\000\000T\000\000\000\000\000\000\000I\000\000\000\000\000\000\000!\000\000\000\000\000\000\000X\000\000\000\000\000\000\000&\000\000\000\000\000\000\000)\000\000\000\000\000\000\000\333\000\000\000\000\000\000\000\327\000\000\000\000\000\000\000C\000\000\000\000\000\000\000$\000\000\000\000\000\000\000F\000\000\000\000\000\000\000H\000\000\000\000\000\000\000&\000\000\000\000\000\000\000U\000\000\000\000\000\000\000I\000\000\000\000\000\000\000E\000\000\000\000\000\000\000T\000\000\000\000\000\000\000K\000\000\000\000\000\000\000)\000\000\000\000\000\000\000V\000\000\000\000\000\000\000%\000\000\000\000\000\000\000J\000\000\000\000\000\000\000S\000\000\000\000\000\000\000R\000\000\000\000\000\000\000\326\000\000\000\000\000\000\000$\000\000\000\000\000\000\000(\000\000\000\000\000\000\000W\000\000\000\000\000\000\000D\000\000\000\000\000\000\000\'\000\000\000\000\000\000\000I\000\000\000\000\000\000\000J\000\000\000\000\000\000\000R\000\000\000\000\000\000\000G\000\000\000\000\000\000\000T\000\000\000\000\000\000\000\326\000\000\000\000\000\000\000K\000\000\000\000\000\000\000\323\000\000\000\000\000\000\000F\000\000\000\000\000\000\000&\000\000\000\000\000\000\000S\000\000\000\000\000\000\000U\000\000\000\000\000\000\000Q\000\000\000\000\000\000\000V\000\000\000\000\000\000\000\332\000\000\000\000\000\000\000\327\000\000\000\000\000\000\000L\000\000\000\000\000\000\000%\000\000\000\000\000\000\000\236\000\000\000\000\000\000\000\316\000\000\000\000\000\000\000J\000\000\000\000\000\000\000H\000\000\000\000\000\000\000G\000\000\000\000\000\000\000R\000\000\000\000\000\000\000K\000\000\000\000\000\000\000\326\000\000\000\000\000\000\000F\000\000\000\000\000\000\000T\000\000\000\000\000\000\000&\000\000\000\000\000\000\000L\000\000\000\000\000\000\000\332\000\000\000\000\000\000\000Q\000\000\000\000\000\000\000U\000\000\000\000\000\000\000\323\000\000\000\000\000\000\000V\000\000\000\000\000\000\000S\000\000\000\000\000\000\000E\000\000\000\000\000\000\000M\000\000\000\000\000\000\000\327\000\000\000\000\000\000\000)\000\000\000\000\000\000\000I\000\000\000\000\000\000\000H\000\000\000\000\000\000\000R\000\000\000\000\000\000\000K\000\000\000\000\000\000\000Q\000\000\000\000\000\000\000L\000\000\000\000\000\000\000G\000\000\000\000\000\000\000T\000\000\000\000\000\000\000S\000\000\000\000\000\000\000\326\000\000\000\000\000\000\000M\000\000\000\000\000\000\000&\000\000\000\000\000\000\000\323\000\000\000\000\000\000\000O\000\000\000\000\000\000\000\236\000\000\000\000\000\000\000P\000\000\000\000\000\000\000F\000\000\000\000\000\000\000N\000\000\000\000\000\000\000\234\000\000\000\000\000\000\000U\000\000\000\000\000\000\000L\000\000\000\000\000\000\000M\000\000\000\000\000\000\000&\000\000\000\000\000\000\000J\000\000\000\000\000\000\000R\000\000\000\000\000\000\000S\000\000\000\000\000\000\000P\000\000\000\000\000\000\000G\000\000\000\000\000\000\000Q\000\000\000\000\000\000\000H\000\000\000\000\000\000\000\'\000\000\000\000\000\000\000I\000\000\000\000\000\000\000O\000\000\000\000\000\000\000T\000\000\000\000\000\000\000%\000\000\000\000\000\000\000N\000\000\000\000\000\000\000U\000\000\000\000\000\000\000(\000\000\000\000\000\000\000)\000\000\000\000\000\000\000\277\000\000\000\000\000\000\000M\000\000\000\000\000\000\000O\000\000\000\000\000\000\000K\000\000\000\000\000\000\000N\000\000\000\000\000\000\000Q\000\000\000\000\000\000\000P\000\000\000\000\000\000\000J\000\000\000\000\000\000\000R\000\000\000\000\000\000\000S\000\000\000\000\000\000\000&\000\000\000\000\000\000\000H\000\000\000\000\000\000\000I\000\000\000\000\000\000\000\'\000\000\000\000\000\000\000\234\000\000\000\000\000\000\000G\000\000\000\000\000\000\000\236\000\000\000\000\000\000\000T\000\000\000\000\000\000\000\300\000\000\000\000\000\000\000\237\000\000\000\000\000\000\000\277\000\000\000\000\000\000\000N\000\000\000\000\000\000\000L\000\000\000\000\000\000\000K\000\000\000\000\000\000\000P\000\000\000\000\000\000\000O\000\000\000\000\000\000\000\'\000\000\000\000\000\000\000Q\000\000\000\000\000\000\000&\000\000\000\000\000\000\000S\000\000\000\000\000\000\000R\000\000\000\000\000\000\000J\000\000\000\000\000\000\000\300\000\000\000\000\000\000\000\277\000\000\000\000\000\000\000G\000\000\000\000\000\000\000%\000\000\000\000\000\000\000(\000\000\000\000\000\000\000H\000\000\000\000\000\000\000)\000\000\000\000\000\000\000I\000\000\000\000\000\000\000T\000\000\000\000\000\000\000M\000\000\000\000\000\000\000O\000\000\000\000\000\000\000L\000\000\000\000\000\000\000P\000\000\000\000\000\000\000K\000\000\000\000\000\000\000Q\000\000\000\000\000\000\000\'\000\000\000\000\000\000\000\232\000\000\000\000\000\000\000\300\000\000\000\000\000\000\000S\000\000\000\000\000\000\000R\000\000\000\000\000\000\000J\000\000\000\000\000\000\000&\000\000\000\000\000\000\000\277\000\000\000\000\000\000\000\231\000\000\000\000\000\000\000\234\000\000\000\000\000\000\000\301\000\000\000\000\000\000\000\237\000\000\000\000\000\000\000\233\000\000\000\000\000\000\000\314\000\000\000\000\000\000\000P\000\000\000\000\000\000\000L\000\000\000\000\000\000\000N\000\000\000\000\000\000\000Q\000\000\000\000\000\000\000M\000\000\000\000\000\000\000\232\000\000\000\000\000\000\000K\000\000\000\000\000\000\000\234\000\000\000\000\000\000\000\300\000\000\000\000\000\000\000R\000\000\000\000\000\000\000S\000\000\000\000\000\000\000\237\000\000\000\000\000\000\000\231\000\000\000\000\000\000\000\233\000\000\000\000\000\000\000\277\000\000\000\000\000\000\000J\000\000\000\000\000\000\000\236\000\000\000\000\000\000\000\'\000\000\000\000\000\000\000\314\000\000\000\000\000\000\000\301\000\000\000\000\000\000\000O\000\000\000\000\000\000\000S\000\000\000\000\000\000\000Q\000\000\000\000\000\000\000M\000\000\000\000\000\000\000L\000\000\000\000\000\000\000K\000\000\000\000\000\000\000\277\000\000\000\000\000\000\000\300\000\000\000\000\000\000\000N\000\000\000\000\000\000\000\'\000\000\000\000\000\000\000R\000\000\000\000\000\000\000&\000\000\000\000\000\000\000\237\000\000\000\000\000\000\000\316\000\000\000\000\000\000\000\314\000\000\000\000\000\000\000%\000\000\000\000\000\000\000\234\000\000\000\000\000\000\000\301\000\000\000\000\000\000\000\232\000\000\000\000\000\000\000\236\000\000\000\000\000\000\000R\000\000\000\000\000\000\000O\000\000\000\000\000\000\000P\000\000\000\000\000\000\000L\000\000\000\000\000\000\000\236\000\000\000\000\000\000\000\234\000\000\000\000\000\000\000J\000\000\000\000\000\000\000K\000\000\000\000\000\000\000S\000\000\000\000\000\000\000\237\000\000\000\000\000\000\000\235\000\000\000\000\000\000\000M\000\000\000\000\000\000\000H\000\000\000\000\000\000\000\316\000\000\000\000\000\000\000N\000\000\000\000\000\000\000T\000\000\000\000\000\000\000\233\000\000\000\000\000\000\000\323\000\000\000\000\000\000\000\300\000\000\000\000\000\000\000&\000\000\000\000\000\000\000Q\000\000\000\000\000\000\000J\000\000\000\000\000\000\000H\000\000\000\000\000\000\000S\000\000\000\000\000\000\000K\000\000\000\000\000\000\000T\000\000\000\000\000\000\000\236\000\000\000\000\000\000\000\323\000\000\000\000\000\000\000L\000\000\000\000\000\000\000P\000\000\000\000\000\000\000I\000\000\000\000\000\000\000\316\000\000\000\000\000\000\000&\000\000\000\000\000\000\000O\000\000\000\000\000\000\000\234\000\000\000\000\000\000\000G\000\000\000\000\000\000\000\237\000\000\000\000\000\000\000\235\000\000\000\000\000\000\000\322\000\000\000\000\000\000\000\326\000\000\000\000\000\000\000&\000\000\000\000\000\000\000%\000\000\000\000\000\000\000T\000\000\000\000\000\000\000P\000\000\000\000\000\000\000R\000\000\000\000\000\000\000\316\000\000\000\000\000\000\000\277\000\000\000\000\000\000\000K\000\000\000\000\000\000\000\275\000\000\000\000\000\000\000\'\000\000\000\000\000\000\000Q\000\000\000\000\000\000\000$\000\000\000\000\000\000\000U\000\000\000\000\000\000\000\261\000\000\000\000\000\000\000\276\000\000\000\000\000\000\000(\000\000\000\000\000\000\000H\000\000\000\000\000\000\000\260\000\000\000\000\000\000\000L\000\000\000\000\000\000\000G\000\000\000\000\000\000\000S\000\000\000\000\000\000\000U\000\000\000\000\000\000\000%\000\000\000\000\000\000\000&\000\000\000\000\000\000\000H\000\000\000\000\000\000\000$\000\000\000\000\000\000\000R\000\000\000\000\000\000\000\323\000\000\000\000\000\000\000\316\000\000\000\000\000\000\000G\000\000\000\000\000\000\000V\000\000\000\000\000\000\000#\000\000\000\000\000\000\000\275\000\000\000\000\000\000\000\326\000\000\000\000\000\000\000\320\000\000\000\000\000\000\000K\000\000\000\000\000\000\000\327\000\000\000\000\000\000\000F\000\000\000\000\000\000\000\261\000\000\000\000\000\000\000I\000\000\000\000\000\000\000$\000\000\000\000\000\000\000%\000\000\000\000\000\000\000V\000\000\000\000\000\000\000&\000\000\000\000\000\000\000T\000\000\000\000\000\000\000G\000\000\000\000\000\000\000F\000\000\000\000\000\000\000W\000\000\000\000\000\000\000#\000\000\000\000\000\000\000E\000\000\000\000\000\000\000(\000\000\000\000\000\000\000\"\000\000\000\000\000\000\000S\000\000\000\000\000\000\000)\000\000\000\000\000\000\000\261\000\000\000\000\000\000\000H\000\000\000\000\000\000\000\275\000\000\000\000\000\000\000\'\000\000\000\000\000\000\000\031\000\000\000\000\000\000\000K\000\000\000\000\000\000\000F\000\000\000\000\000\000\000U\000\000\000\000\000\000\000W\000\000\000\000\000\000\000#\000\000\000\000\000\000\000\"\000\000\000\000\000\000\000!\000\000\000\000\000\000\000E\000\000\000\000\000\000\000\327\000\000\000\000\000\000\000T\000\000\000\000\000\000\000\332\000\000\000\000\000\000\000$\000\000\000\000\000\000\000G\000\000\000\000\000\000\000\326\000\000\000\000\000\000\000\333\000\000\000\000\000\000\000X\000\000\000\000\000\000\000D\000\000\000\000\000\000\000%\000\000\000\000\000\000\000H\000\000\000\000\000\000\000\035\000\000\000\000\000\000\000&\000\000\000\000\000\000\000\"\000\000\000\000\000\000\000V\000\000\000\000\000\000\000E\000\000\000\000\000\000\000X\000\000\000\000\000\000\000U\000\000\000\000\000\000\000!\000\000\000\000\000\000\000B\000\000\000\000\000\000\000Y\000\000\000\000\000\000\000#\000\000\000\000\000\000\000D\000\000\000\000\000\000\000$\000\000\000\000\000\000\000F\000\000\000\000\000\000\000C\000\000\000\000\000\000\000-\000\000\000\000\000\000\000/\000\000\000\000\000\000\000\021\000\000\000\000\000\000\000 \000\000\000\000\000\000\000\033\000\000\000\000\000\000\000A\000\000\000\000\000\000\000\032\000\000\000\000\000\000\000Y\000\000\000\000\000\000\000C\000\000\000\000\000\000\000!\000\000\000\000\000\000\000D\000\000\000\000\000\000\000 \000\000\000\000\000\000\000W\000\000\000\000\000\000\000B\000\000\000\000\000\000\000\336\000\000\000\000\000\000\000Z\000\000\000\000\000\000\000E\000\000\000\000\000\000\000V\000\000\000\000\000\000\000\"\000\000\000\000\000\000\000[\000\000\000\000\000\000\000\333\000\000\000\000\000\000\000F\000\000\000\000\000\000\000A\000\000\000\000\000\000\000\\\000\000\000\000\000\000\000\036\000\000\000\000\000\000\000\037\000\000\000\000\000\000\000@\000\000\000\000\000\000\000 \000\000\000\000\000\000\000X\000\000\000\000\000\000\000[\000\000\000\000\000\000\000@\000\000\000\000\000\000\000Z\000\000\000\000\000\000\000B\000\000\000\000\000\000\000\\\000\000\000\000\000\000\000A\000\000\000\000\000\000\000C\000\000\000\000\000\000\000W\000\000\000\000\000\000\000/\000\000\000\000\000\000\000!\000\000\000\000\000\000\000\"\000\000\000\000\000\000\000\037\000\000\000\000\000\000\000]\000\000\000\000\000\000\000\036\000\000\000\000\000\000\000D\000\000\000\000\000\000\000\034\000\000\000\000\000\000\0001\000\000\000\000\000\000\000-\000\000\000\000\000\000\000A\000\000\000\000\000\000\000C\000\000\000\000\000\000\000[\000\000\000\000\000\000\000B\000\000\000\000\000\000\000Y\000\000\000\000\000\000\000@\000\000\000\000\000\000\000X\000\000\000\000\000\000\000\\\000\000\000\000\000\000\000 \000\000\000\000\000\000\000D\000\000\000\000\000\000\000/\000\000\000\000\000\000\000W\000\000\000\000\000\000\000.\000\000\000\000\000\000\000-\000\000\000\000\000\000\000]\000\000\000\000\000\000\000,\000\000\000\000\000\000\000E\000\000\000\000\000\000\000!\000\000\000\000\000\000\000\037\000\000\000\000\000\000\000?\000\000\000\000\000\000\000\\\000\000\000\000\000\000\000Z\000\000\000\000\000\000\000Y\000\000\000\000\000\000\000@\000\000\000\000\000\000\000 \000\000\000\000\000\000\000]\000\000\000\000\000\000\000A\000\000\000\000\000\000\000\037\000\000\000\000\000\000\000X\000\000\000\000\000\000\000C\000\000\000\000\000\000\000B\000\000\000\000\000\000\000^\000\000\000\000\000\000\000>\000\000\000\000\000\000\000/\000\000\000\000\000\000\000!\000\000\000\000\000\000\0001\000\000\000\000\000\000\000\036\000\000\000\000\000\000\000?\000\000\000\000\000\000\000W\000\000\000\000\000\000\000.\000\000\000\000\000\000\000]\000\000\000\000\000\000\000[\000\000\000\000\000\000\000\037\000\000\000\000\000\000\000 \000\000\000\000\000\000\000Y\000\000\000\000\000\000\000^\000\000\000\000\000\000\000@\000\000\000\000\000\000\000_\000\000\000\000\000\000\000Z\000\000\000\000\000\000\000>\000\000\000\000\000\000\000\036\000\000\000\000\000\000\000X\000\000\000\000\000\000\0001\000\000\000\000\000\000\000A\000\000\000\000\000\000\000\034\000\000\000\000\000\000\000!\000\000\000\000\000\000\000c\000\000\000\000\000\000\000/\000\000\000\000\000\000\000C\000\000\000\000\000\000\000B\000\000\000\000\000\000\000\\\000\000\000\000\000\000\000^\000\000\000\000\000\000\000\037\000\000\000\000\000\000\000_\000\000\000\000\000\000\000[\000\000\000\000\000\000\000>\000\000\000\000\000\000\000c\000\000\000\000\000\000\000 \000\000\000\000\000\000\000@\000\000\000\000\000\000\000Y\000\000\000\000\000\000\0001\000\000\000\000\000\000\000\034\000\000\000\000\000\000\000\036\000\000\000\000\000\000\000`\000\000\000\000\000\000\000d\000\000\000\000\000\000\000e\000\000\000\000\000\000\000/\000\000\000\000\000\000\0002\000\000\000\000\000\000\000\"\000\000\000\000\000\000\000Z\000\000\000\000\000\000\000]\000\000\000\000\000\000\000_\000\000\000\000\000\000\000`\000\000\000\000\000\000\000>\000\000\000\000\000\000\000c\000\000\000\000\000\000\000\\\000\000\000\000\000\000\000\037\000\000\000\000\000\000\0001\000\000\000\000\000\000\000d\000\000\000\000\000\000\000[\000\000\000\000\000\000\000a\000\000\000\000\000\000\000@\000\000\000\000\000\000\000<\000\000\000\000\000\000\0002\000\000\000\000\000\000\000\034\000\000\000\000\000\000\000b\000\000\000\000\000\000\000 \000\000\000\000\000\000\000e\000\000\000\000\000\000\000\036\000\000\000\000\000\000\000Y\000\000\000\000\000\000\000^\000\000\000\000\000\000\000`\000\000\000\000\000\000\000c\000\000\000\000\000\000\000]\000\000\000\000\000\000\000d\000\000\000\000\000\000\000\037\000\000\000\000\000\000\000e\000\000\000\000\000\000\000a\000\000\000\000\000\000\000\\\000\000\000\000\000\000\000\034\000\000\000\000\000\000\000\036\000\000\000\000\000\000\000>\000\000\000\000\000\000\000\014\000\000\000\000\000\000\0001\000\000\000\000\000\000\000b\000\000\000\000\000\000\000 